{
  "version": "1.0",
  "truncation": {
    "direction": "Right",
    "max_length": 128,
    "strategy": "LongestFirst",
    "stride": 0
  },
  "padding": {
    "strategy": {
      "Fixed": 128
    },
    "direction": "Right",
    "pad_to_multiple_of": null,
    "pad_id": 0,
    "pad_type_id": 0,
    "pad_token": "[PAD]"
  },
  "added_tokens": [
    {
      "id": 0,
      "content": "[PAD]",
      "single_word": false,
      "lstrip": false,
      "rstrip": false,
      "normalized": false,
      "special": true
    },
    {
      "id": 1,
      "content": "[UNK]",
      "single_word": false,
      "lstrip": false,
      "rstrip": false,
      "normalized": false,
      "special": true
    },
    {
      "id": 2,
      "content": "[CLS]",
      "single_word": false,
      "lstrip": false,
      "rstrip": false,
      "normalized": false,
      "special": true
    },
    {
      "id": 3,
      "content": "[SEP]",
      "single_word": false,
      "lstrip": false,
      "rstrip": false,
      "normalized": false,
      "special": true
    },
    {
      "id": 4,
      "content": "[MASK]",
      "single_word": false,
      "lstrip": false,
      "rstrip": false,
      "normalized": false,
      "special": true
    }
  ],
  "normalizer": {
    "type": "BertNormalizer",
    "clean_text": true,
    "handle_chinese_chars": true,
    "strip_accents": null,
    "lowercase": false
  },
  "pre_tokenizer": {
    "type": "BertPreTokenizer"
  },
  "post_processor": {
    "type": "TemplateProcessing",
    "single": [
      {
        "SpecialToken": {
          "id": "[CLS]",
          "type_id": 0
        }
      },
      {
        "Sequence": {
          "id": "A",
          "type_id": 0
        }
      },
      {
        "SpecialToken": {
          "id": "[SEP]",
          "type_id": 0
        }
      }
    ],
    "pair": [
      {
        "SpecialToken": {
          "id": "[CLS]",
          "type_id": 0
        }
      },
      {
        "Sequence": {
          "id": "A",
          "type_id": 0
        }
      },
      {
        "SpecialToken": {
          "id": "[SEP]",
          "type_id": 0
        }
      },
      {
        "Sequence": {
          "id": "B",
          "type_id": 1
        }
      },
      {
        "SpecialToken": {
          "id": "[SEP]",
          "type_id": 1
        }
      }
    ],
    "special_tokens": {
      "[CLS]": {
        "id": "[CLS]",
        "ids": [
          2
        ],
        "tokens": [
          "[CLS]"
        ]
      },
      "[SEP]": {
        "id": "[SEP]",
        "ids": [
          3
        ],
        "tokens": [
          "[SEP]"
        ]
      }
    }
  },
  "decoder": {
    "type": "WordPiece",
    "prefix": "##",
    "cleanup": true
  },
  "model": {
    "type": "WordPiece",
    "unk_token": "[UNK]",
    "continuing_subword_prefix": "##",
    "max_input_chars_per_word": 100,
    "vocab": {
      "[PAD]": 0,
      "[UNK]": 1,
      "[CLS]": 2,
      "[SEP]": 3,
      "[MASK]": 4,
      "[unused0]": 5,
      "[unused1]": 6,
      "[unused2]": 7,
      "[unused3]": 8,
      "[unused4]": 9,
      "[unused5]": 10,
      "[unused6]": 11,
      "[unused7]": 12,
      "[unused8]": 13,
      "[unused9]": 14,
      "[unused10]": 15,
      "[unused11]": 16,
      "[unused12]": 17,
      "[unused13]": 18,
      "[unused14]": 19,
      "[unused15]": 20,
      "[unused16]": 21,
      "[unused17]": 22,
      "[unused18]": 23,
      "[unused19]": 24,
      "[unused20]": 25,
      "[unused21]": 26,
      "[unused22]": 27,
      "[unused23]": 28,
      "[unused24]": 29,
      "[unused25]": 30,
      "[unused26]": 31,
      "[unused27]": 32,
      "[unused28]": 33,
      "[unused29]": 34,
      "[unused30]": 35,
      "[unused31]": 36,
      "[unused32]": 37,
      "[unused33]": 38,
      "[unused34]": 39,
      "[unused35]": 40,
      "[unused36]": 41,
      "[unused37]": 42,
      "[unused38]": 43,
      "[unused39]": 44,
      "[unused40]": 45,
      "[unused41]": 46,
      "[unused42]": 47,
      "[unused43]": 48,
      "[unused44]": 49,
      "[unused45]": 50,
      "[unused46]": 51,
      "[unused47]": 52,
      "[unused48]": 53,
      "[unused49]": 54,
      "[unused50]": 55,
      "[unused51]": 56,
      "[unused52]": 57,
      "[unused53]": 58,
      "[unused54]": 59,
      "[unused55]": 60,
      "[unused56]": 61,
      "[unused57]": 62,
      "[unused58]": 63,
      "[unused59]": 64,
      "[unused60]": 65,
      "[unused61]": 66,
      "[unused62]": 67,
      "[unused63]": 68,
      "[unused64]": 69,
      "[unused65]": 70,
      "[unused66]": 71,
      "[unused67]": 72,
      "[unused68]": 73,
      "[unused69]": 74,
      "[unused70]": 75,
      "[unused71]": 76,
      "[unused72]": 77,
      "[unused73]": 78,
      "[unused74]": 79,
      "[unused75]": 80,
      "[unused76]": 81,
      "[unused77]": 82,
      "[unused78]": 83,
      "[unused79]": 84,
      "[unused80]": 85,
      "[unused81]": 86,
      "[unused82]": 87,
      "[unused83]": 88,
      "[unused84]": 89,
      "[unused85]": 90,
      "[unused86]": 91,
      "[unused87]": 92,
      "[unused88]": 93,
      "[unused89]": 94,
      "[unused90]": 95,
      "[unused91]": 96,
      "[unused92]": 97,
      "[unused93]": 98,
      "[unused94]": 99,
      "[unused95]": 100,
      "[unused96]": 101,
      "[unused97]": 102,
      "[unused98]": 103,
      "[unused99]": 104,
      "[unused100]": 105,
      "[unused101]": 106,
      "[unused102]": 107,
      "[unused103]": 108,
      "[unused104]": 109,
      "[unused105]": 110,
      "[unused106]": 111,
      "[unused107]": 112,
      "[unused108]": 113,
      "[unused109]": 114,
      "[unused110]": 115,
      "[unused111]": 116,
      "[unused112]": 117,
      "[unused113]": 118,
      "[unused114]": 119,
      "[unused115]": 120,
      "[unused116]": 121,
      "[unused117]": 122,
      "[unused118]": 123,
      "[unused119]": 124,
      "[unused120]": 125,
      "[unused121]": 126,
      "[unused122]": 127,
      "[unused123]": 128,
      "[unused124]": 129,
      "[unused125]": 130,
      "[unused126]": 131,
      "[unused127]": 132,
      "[unused128]": 133,
      "[unused129]": 134,
      "[unused130]": 135,
      "[unused131]": 136,
      "[unused132]": 137,
      "[unused133]": 138,
      "[unused134]": 139,
      "[unused135]": 140,
      "[unused136]": 141,
      "[unused137]": 142,
      "[unused138]": 143,
      "[unused139]": 144,
      "[unused140]": 145,
      "[unused141]": 146,
      "[unused142]": 147,
      "[unused143]": 148,
      "[unused144]": 149,
      "[unused145]": 150,
      "[unused146]": 151,
      "[unused147]": 152,
      "[unused148]": 153,
      "[unused149]": 154,
      "[unused150]": 155,
      "[unused151]": 156,
      "[unused152]": 157,
      "[unused153]": 158,
      "[unused154]": 159,
      "[unused155]": 160,
      "[unused156]": 161,
      "[unused157]": 162,
      "[unused158]": 163,
      "[unused159]": 164,
      "[unused160]": 165,
      "[unused161]": 166,
      "[unused162]": 167,
      "[unused163]": 168,
      "[unused164]": 169,
      "[unused165]": 170,
      "[unused166]": 171,
      "[unused167]": 172,
      "[unused168]": 173,
      "[unused169]": 174,
      "[unused170]": 175,
      "[unused171]": 176,
      "[unused172]": 177,
      "[unused173]": 178,
      "[unused174]": 179,
      "[unused175]": 180,
      "[unused176]": 181,
      "[unused177]": 182,
      "[unused178]": 183,
      "[unused179]": 184,
      "[unused180]": 185,
      "[unused181]": 186,
      "[unused182]": 187,
      "[unused183]": 188,
      "[unused184]": 189,
      "[unused185]": 190,
      "[unused186]": 191,
      "[unused187]": 192,
      "[unused188]": 193,
      "[unused189]": 194,
      "[unused190]": 195,
      "[unused191]": 196,
      "[unused192]": 197,
      "[unused193]": 198,
      "[unused194]": 199,
      "[unused195]": 200,
      "[unused196]": 201,
      "[unused197]": 202,
      "[unused198]": 203,
      "[unused199]": 204,
      "[unused200]": 205,
      "[unused201]": 206,
      "[unused202]": 207,
      "[unused203]": 208,
      "[unused204]": 209,
      "[unused205]": 210,
      "[unused206]": 211,
      "[unused207]": 212,
      "[unused208]": 213,
      "[unused209]": 214,
      "[unused210]": 215,
      "[unused211]": 216,
      "[unused212]": 217,
      "[unused213]": 218,
      "[unused214]": 219,
      "[unused215]": 220,
      "[unused216]": 221,
      "[unused217]": 222,
      "[unused218]": 223,
      "[unused219]": 224,
      "[unused220]": 225,
      "[unused221]": 226,
      "[unused222]": 227,
      "[unused223]": 228,
      "[unused224]": 229,
      "[unused225]": 230,
      "[unused226]": 231,
      "[unused227]": 232,
      "[unused228]": 233,
      "[unused229]": 234,
      "[unused230]": 235,
      "[unused231]": 236,
      "[unused232]": 237,
      "[unused233]": 238,
      "[unused234]": 239,
      "[unused235]": 240,
      "[unused236]": 241,
      "[unused237]": 242,
      "[unused238]": 243,
      "[unused239]": 244,
      "[unused240]": 245,
      "[unused241]": 246,
      "[unused242]": 247,
      "[unused243]": 248,
      "[unused244]": 249,
      "[unused245]": 250,
      "[unused246]": 251,
      "[unused247]": 252,
      "[unused248]": 253,
      "[unused249]": 254,
      "[unused250]": 255,
      "[unused251]": 256,
      "[unused252]": 257,
      "[unused253]": 258,
      "[unused254]": 259,
      "[unused255]": 260,
      "[unused256]": 261,
      "[unused257]": 262,
      "[unused258]": 263,
      "[unused259]": 264,
      "[unused260]": 265,
      "[unused261]": 266,
      "[unused262]": 267,
      "[unused263]": 268,
      "[unused264]": 269,
      "[unused265]": 270,
      "[unused266]": 271,
      "[unused267]": 272,
      "[unused268]": 273,
      "[unused269]": 274,
      "[unused270]": 275,
      "[unused271]": 276,
      "[unused272]": 277,
      "[unused273]": 278,
      "[unused274]": 279,
      "[unused275]": 280,
      "[unused276]": 281,
      "[unused277]": 282,
      "[unused278]": 283,
      "[unused279]": 284,
      "[unused280]": 285,
      "[unused281]": 286,
      "[unused282]": 287,
      "[unused283]": 288,
      "[unused284]": 289,
      "[unused285]": 290,
      "[unused286]": 291,
      "[unused287]": 292,
      "[unused288]": 293,
      "[unused289]": 294,
      "[unused290]": 295,
      "[unused291]": 296,
      "[unused292]": 297,
      "[unused293]": 298,
      "[unused294]": 299,
      "[unused295]": 300,
      "[unused296]": 301,
      "[unused297]": 302,
      "[unused298]": 303,
      "[unused299]": 304,
      "[unused300]": 305,
      "[unused301]": 306,
      "[unused302]": 307,
      "[unused303]": 308,
      "[unused304]": 309,
      "[unused305]": 310,
      "[unused306]": 311,
      "[unused307]": 312,
      "[unused308]": 313,
      "[unused309]": 314,
      "[unused310]": 315,
      "[unused311]": 316,
      "[unused312]": 317,
      "[unused313]": 318,
      "[unused314]": 319,
      "[unused315]": 320,
      "[unused316]": 321,
      "[unused317]": 322,
      "[unused318]": 323,
      "[unused319]": 324,
      "[unused320]": 325,
      "[unused321]": 326,
      "[unused322]": 327,
      "[unused323]": 328,
      "[unused324]": 329,
      "[unused325]": 330,
      "[unused326]": 331,
      "[unused327]": 332,
      "[unused328]": 333,
      "[unused329]": 334,
      "[unused330]": 335,
      "[unused331]": 336,
      "[unused332]": 337,
      "[unused333]": 338,
      "[unused334]": 339,
      "[unused335]": 340,
      "[unused336]": 341,
      "[unused337]": 342,
      "[unused338]": 343,
      "[unused339]": 344,
      "[unused340]": 345,
      "[unused341]": 346,
      "[unused342]": 347,
      "[unused343]": 348,
      "[unused344]": 349,
      "[unused345]": 350,
      "[unused346]": 351,
      "[unused347]": 352,
      "[unused348]": 353,
      "[unused349]": 354,
      "[unused350]": 355,
      "[unused351]": 356,
      "[unused352]": 357,
      "[unused353]": 358,
      "[unused354]": 359,
      "[unused355]": 360,
      "[unused356]": 361,
      "[unused357]": 362,
      "[unused358]": 363,
      "[unused359]": 364,
      "[unused360]": 365,
      "[unused361]": 366,
      "[unused362]": 367,
      "[unused363]": 368,
      "[unused364]": 369,
      "[unused365]": 370,
      "[unused366]": 371,
      "[unused367]": 372,
      "[unused368]": 373,
      "[unused369]": 374,
      "[unused370]": 375,
      "[unused371]": 376,
      "[unused372]": 377,
      "[unused373]": 378,
      "[unused374]": 379,
      "[unused375]": 380,
      "[unused376]": 381,
      "[unused377]": 382,
      "[unused378]": 383,
      "[unused379]": 384,
      "[unused380]": 385,
      "[unused381]": 386,
      "[unused382]": 387,
      "[unused383]": 388,
      "[unused384]": 389,
      "[unused385]": 390,
      "[unused386]": 391,
      "[unused387]": 392,
      "[unused388]": 393,
      "[unused389]": 394,
      "[unused390]": 395,
      "[unused391]": 396,
      "[unused392]": 397,
      "[unused393]": 398,
      "[unused394]": 399,
      "[unused395]": 400,
      "[unused396]": 401,
      "[unused397]": 402,
      "[unused398]": 403,
      "[unused399]": 404,
      "[unused400]": 405,
      "[unused401]": 406,
      "[unused402]": 407,
      "[unused403]": 408,
      "[unused404]": 409,
      "[unused405]": 410,
      "[unused406]": 411,
      "[unused407]": 412,
      "[unused408]": 413,
      "[unused409]": 414,
      "[unused410]": 415,
      "[unused411]": 416,
      "[unused412]": 417,
      "[unused413]": 418,
      "[unused414]": 419,
      "[unused415]": 420,
      "[unused416]": 421,
      "[unused417]": 422,
      "[unused418]": 423,
      "[unused419]": 424,
      "[unused420]": 425,
      "[unused421]": 426,
      "[unused422]": 427,
      "[unused423]": 428,
      "[unused424]": 429,
      "[unused425]": 430,
      "[unused426]": 431,
      "[unused427]": 432,
      "[unused428]": 433,
      "[unused429]": 434,
      "[unused430]": 435,
      "[unused431]": 436,
      "[unused432]": 437,
      "[unused433]": 438,
      "[unused434]": 439,
      "[unused435]": 440,
      "[unused436]": 441,
      "[unused437]": 442,
      "[unused438]": 443,
      "[unused439]": 444,
      "[unused440]": 445,
      "[unused441]": 446,
      "[unused442]": 447,
      "[unused443]": 448,
      "[unused444]": 449,
      "[unused445]": 450,
      "[unused446]": 451,
      "[unused447]": 452,
      "[unused448]": 453,
      "[unused449]": 454,
      "[unused450]": 455,
      "[unused451]": 456,
      "[unused452]": 457,
      "[unused453]": 458,
      "[unused454]": 459,
      "[unused455]": 460,
      "[unused456]": 461,
      "[unused457]": 462,
      "[unused458]": 463,
      "[unused459]": 464,
      "[unused460]": 465,
      "[unused461]": 466,
      "[unused462]": 467,
      "[unused463]": 468,
      "[unused464]": 469,
      "[unused465]": 470,
      "[unused466]": 471,
      "[unused467]": 472,
      "[unused468]": 473,
      "[unused469]": 474,
      "[unused470]": 475,
      "[unused471]": 476,
      "[unused472]": 477,
      "[unused473]": 478,
      "[unused474]": 479,
      "[unused475]": 480,
      "[unused476]": 481,
      "[unused477]": 482,
      "[unused478]": 483,
      "[unused479]": 484,
      "[unused480]": 485,
      "[unused481]": 486,
      "[unused482]": 487,
      "[unused483]": 488,
      "[unused484]": 489,
      "[unused485]": 490,
      "[unused486]": 491,
      "[unused487]": 492,
      "[unused488]": 493,
      "[unused489]": 494,
      "[unused490]": 495,
      "[unused491]": 496,
      "[unused492]": 497,
      "[unused493]": 498,
      "[unused494]": 499,
      "[unused495]": 500,
      "[unused496]": 501,
      "[unused497]": 502,
      "[unused498]": 503,
      "[unused499]": 504,
      "이": 505,
      ".": 506,
      "다": 507,
      "는": 508,
      "지": 509,
      "고": 510,
      "하": 511,
      "가": 512,
      "에": 513,
      "을": 514,
      "한": 515,
      "로": 516,
      "의": 517,
      "도": 518,
      "기": 519,
      "은": 520,
      "서": 521,
      "들": 522,
      "사": 523,
      "대": 524,
      "라": 525,
      "아": 526,
      "나": 527,
      "인": 528,
      "리": 529,
      "자": 530,
      "해": 531,
      "어": 532,
      "시": 533,
      "정": 534,
      "를": 535,
      ",": 536,
      "국": 537,
      "수": 538,
      "으": 539,
      "니": 540,
      "만": 541,
      "그": 542,
      "있": 543,
      "게": 544,
      "보": 545,
      "면": 546,
      "부": 547,
      "일": 548,
      "0": 549,
      "전": 550,
      "주": 551,
      "1": 552,
      "제": 553,
      "?": 554,
      "장": 555,
      "원": 556,
      "거": 557,
      "상": 558,
      "스": 559,
      "문": 560,
      "과": 561,
      "구": 562,
      "2": 563,
      "했": 564,
      "안": 565,
      "것": 566,
      "데": 567,
      "야": 568,
      "조": 569,
      "당": 570,
      "적": 571,
      "민": 572,
      "무": 573,
      "마": 574,
      "요": 575,
      "성": 576,
      "공": 577,
      "신": 578,
      "진": 579,
      "선": 580,
      "ㅋ": 581,
      "중": 582,
      "동": 583,
      "경": 584,
      "여": 585,
      "개": 586,
      "우": 587,
      "소": 588,
      "세": 589,
      "위": 590,
      "말": 591,
      "비": 592,
      "내": 593,
      "미": 594,
      "치": 595,
      "재": 596,
      "모": 597,
      "없": 598,
      "되": 599,
      "네": 600,
      "유": 601,
      "할": 602,
      "생": 603,
      "화": 604,
      "오": 605,
      "회": 606,
      "와": 607,
      "!": 608,
      "간": 609,
      "까": 610,
      "려": 611,
      "관": 612,
      "'": 613,
      "~": 614,
      "통": 615,
      "3": 616,
      "년": 617,
      "금": 618,
      "계": 619,
      "명": 620,
      "등": 621,
      "업": 622,
      "드": 623,
      "건": 624,
      "러": 625,
      "단": 626,
      "연": 627,
      "실": 628,
      "교": 629,
      "트": 630,
      "용": 631,
      "5": 632,
      "저": 633,
      "발": 634,
      "었": 635,
      "산": 636,
      ")": 637,
      "(": 638,
      "더": 639,
      "때": 640,
      "냐": 641,
      "분": 642,
      "방": 643,
      "바": 644,
      "터": 645,
      "차": 646,
      "영": 647,
      "며": 648,
      "체": 649,
      "입": 650,
      "행": 651,
      "히": 652,
      "4": 653,
      "된": 654,
      "역": 655,
      "본": 656,
      "반": 657,
      "운": 658,
      "\"": 659,
      "학": 660,
      "심": 661,
      "같": 662,
      "권": 663,
      "식": 664,
      "않": 665,
      "물": 666,
      "력": 667,
      "남": 668,
      "각": 669,
      "불": 670,
      "람": 671,
      "난": 672,
      "못": 673,
      "임": 674,
      "르": 675,
      "작": 676,
      "후": 677,
      "파": 678,
      "감": 679,
      "노": 680,
      "겠": 681,
      "음": 682,
      "런": 683,
      "래": 684,
      "강": 685,
      "던": 686,
      "타": 687,
      "처": 688,
      "직": 689,
      "6": 690,
      "현": 691,
      "9": 692,
      "속": 693,
      "받": 694,
      "법": 695,
      "출": 696,
      "청": 697,
      "8": 698,
      "두": 699,
      "레": 700,
      "결": 701,
      "최": 702,
      "매": 703,
      "표": 704,
      "호": 705,
      "박": 706,
      "달": 707,
      "월": 708,
      "양": 709,
      "7": 710,
      "살": 711,
      "합": 712,
      "준": 713,
      "점": 714,
      "예": 715,
      "집": 716,
      "천": 717,
      "프": 718,
      "너": 719,
      "버": 720,
      "설": 721,
      "배": 722,
      "번": 723,
      "알": 724,
      "북": 725,
      "많": 726,
      "판": 727,
      "잘": 728,
      "피": 729,
      "근": 730,
      "종": 731,
      "질": 732,
      "외": 733,
      "포": 734,
      "격": 735,
      "김": 736,
      "크": 737,
      "능": 738,
      "올": 739,
      "추": 740,
      "군": 741,
      "령": 742,
      "함": 743,
      "급": 744,
      "“": 745,
      "’": 746,
      "”": 747,
      "‘": 748,
      "걸": 749,
      "았": 750,
      "키": 751,
      "디": 752,
      "태": 753,
      "든": 754,
      "애": 755,
      "새": 756,
      "른": 757,
      "언": 758,
      "참": 759,
      "좋": 760,
      "왜": 761,
      "울": 762,
      "망": 763,
      "먹": 764,
      "형": 765,
      "습": 766,
      "짜": 767,
      "검": 768,
      "투": 769,
      "O": 770,
      "%": 771,
      "린": 772,
      "따": 773,
      "석": 774,
      "약": 775,
      "열": 776,
      "초": 777,
      "친": 778,
      "날": 779,
      "증": 780,
      "또": 781,
      "론": 782,
      "·": 783,
      "쓰": 784,
      "평": 785,
      "카": 786,
      "특": 787,
      "편": 788,
      "승": 789,
      "목": 790,
      "확": 791,
      "토": 792,
      "코": 793,
      "독": 794,
      "누": 795,
      "총": 796,
      "럼": 797,
      "테": 798,
      "맞": 799,
      "온": 800,
      "복": 801,
      "환": 802,
      "줄": 803,
      "품": 804,
      "책": 805,
      "절": 806,
      "글": 807,
      "변": 808,
      "록": 809,
      "활": 810,
      "-": 811,
      "란": 812,
      "찰": 813,
      "렇": 814,
      "광": 815,
      "벌": 816,
      "억": 817,
      "병": 818,
      "좀": 819,
      "랑": 820,
      "죽": 821,
      "돌": 822,
      "였": 823,
      "황": 824,
      "료": 825,
      "루": 826,
      "돈": 827,
      "족": 828,
      "S": 829,
      "빨": 830,
      "씨": 831,
      "길": 832,
      "뭐": 833,
      "e": 834,
      "막": 835,
      "악": 836,
      "놈": 837,
      "잡": 838,
      "워": 839,
      "순": 840,
      "술": 841,
      "창": 842,
      "머": 843,
      "죄": 844,
      "끼": 845,
      "봐": 846,
      "쳐": 847,
      "져": 848,
      "느": 849,
      "손": 850,
      "님": 851,
      "담": 852,
      "육": 853,
      "좌": 854,
      "넘": 855,
      "별": 856,
      "베": 857,
      "C": 858,
      "패": 859,
      "앞": 860,
      "필": 861,
      "됐": 862,
      "향": 863,
      "얼": 864,
      "련": 865,
      "듯": 866,
      "될": 867,
      "항": 868,
      "앙": 869,
      "짓": 870,
      "희": 871,
      "철": 872,
      "돼": 873,
      "갈": 874,
      "a": 875,
      "탄": 876,
      "티": 877,
      "냥": 878,
      "빠": 879,
      "범": 880,
      "협": 881,
      "o": 882,
      "A": 883,
      "극": 884,
      "메": 885,
      "송": 886,
      "험": 887,
      "삼": 888,
      "폭": 889,
      "놓": 890,
      "충": 891,
      "닌": 892,
      "존": 893,
      "규": 894,
      "늘": 895,
      "겨": 896,
      "T": 897,
      "름": 898,
      "브": 899,
      "뒤": 900,
      "힘": 901,
      "께": 902,
      "졌": 903,
      "택": 904,
      "축": 905,
      "취": 906,
      "백": 907,
      "i": 908,
      "싶": 909,
      "t": 910,
      "답": 911,
      "긴": 912,
      "밝": 913,
      "량": 914,
      "접": 915,
      "립": 916,
      "눈": 917,
      "n": 918,
      "채": 919,
      "응": 920,
      "B": 921,
      "몰": 922,
      "곳": 923,
      "높": 924,
      "플": 925,
      "욕": 926,
      "혜": 927,
      "r": 928,
      "폐": 929,
      "색": 930,
      "럽": 931,
      "완": 932,
      "쟁": 933,
      "쪽": 934,
      "류": 935,
      "싸": 936,
      "즈": 937,
      "움": 938,
      "ㅎ": 939,
      "깨": 940,
      "왔": 941,
      "견": 942,
      "엔": 943,
      "율": 944,
      "먼": 945,
      "착": 946,
      "끝": 947,
      "허": 948,
      "M": 949,
      "K": 950,
      "핵": 951,
      "s": 952,
      "페": 953,
      "P": 954,
      "득": 955,
      "탈": 956,
      "락": 957,
      "슨": 958,
      ":": 959,
      "혼": 960,
      "ㅡ": 961,
      "/": 962,
      "I": 963,
      "림": 964,
      "켜": 965,
      "퍼": 966,
      "G": 967,
      "녀": 968,
      "엄": 969,
      "볼": 970,
      "댓": 971,
      "팔": 972,
      "m": 973,
      "찬": 974,
      "웃": 975,
      "D": 976,
      "논": 977,
      "골": 978,
      "렸": 979,
      "침": 980,
      "획": 981,
      "익": 982,
      "큰": 983,
      "ㅉ": 984,
      "커": 985,
      "혀": 986,
      "죠": 987,
      "L": 988,
      "찾": 989,
      "효": 990,
      "떨": 991,
      "뿐": 992,
      "E": 993,
      "및": 994,
      "홍": 995,
      "밀": 996,
      "징": 997,
      "혁": 998,
      "윤": 999,
      "혔": 1000,
      "팀": 1001,
      "떠": 1002,
      "봉": 1003,
      "귀": 1004,
      "뉴": 1005,
      "케": 1006,
      "농": 1007,
      "l": 1008,
      "례": 1009,
      "틀": 1010,
      "났": 1011,
      "써": 1012,
      "션": 1013,
      "릴": 1014,
      "^": 1015,
      "갱": 1016,
      "굴": 1017,
      "ㆍ": 1018,
      "밖": 1019,
      "갖": 1020,
      "클": 1021,
      "왕": 1022,
      "측": 1023,
      "블": 1024,
      "퇴": 1025,
      "떻": 1026,
      "객": 1027,
      "꾸": 1028,
      "휴": 1029,
      "c": 1030,
      "ㅠ": 1031,
      "염": 1032,
      "뭔": 1033,
      "센": 1034,
      "믿": 1035,
      "갔": 1036,
      "N": 1037,
      "몇": 1038,
      "찍": 1039,
      "F": 1040,
      "압": 1041,
      "잖": 1042,
      "큼": 1043,
      "꼴": 1044,
      "갑": 1045,
      "랜": 1046,
      "똑": 1047,
      "꺼": 1048,
      "놀": 1049,
      "층": 1050,
      "붙": 1051,
      "액": 1052,
      "째": 1053,
      "덕": 1054,
      "츠": 1055,
      "줘": 1056,
      "슬": 1057,
      "풀": 1058,
      "률": 1059,
      "혹": 1060,
      "훈": 1061,
      "얘": 1062,
      "싫": 1063,
      "딱": 1064,
      "곡": 1065,
      "십": 1066,
      "끌": 1067,
      "V": 1068,
      "캐": 1069,
      "둘": 1070,
      "찌": 1071,
      "쇼": 1072,
      "괴": 1073,
      "R": 1074,
      "h": 1075,
      "융": 1076,
      "뽑": 1077,
      "똥": 1078,
      "암": 1079,
      "d": 1080,
      "텐": 1081,
      "풍": 1082,
      "숨": 1083,
      "꼬": 1084,
      "u": 1085,
      "척": 1086,
      "g": 1087,
      "롯": 1088,
      "숙": 1089,
      "…": 1090,
      "념": 1091,
      "낸": 1092,
      "k": 1093,
      "뇌": 1094,
      "잠": 1095,
      "균": 1096,
      "값": 1097,
      "밥": 1098,
      "쿠": 1099,
      "빼": 1100,
      "팅": 1101,
      "첫": 1102,
      "뻔": 1103,
      "봤": 1104,
      "겁": 1105,
      "떤": 1106,
      "몸": 1107,
      "헌": 1108,
      "욱": 1109,
      "옥": 1110,
      "폰": 1111,
      "딸": 1112,
      "맨": 1113,
      "궁": 1114,
      "낮": 1115,
      "잔": 1116,
      "즌": 1117,
      "씩": 1118,
      "랄": 1119,
      "쉬": 1120,
      "ㅅ": 1121,
      "탓": 1122,
      "p": 1123,
      "핑": 1124,
      "널": 1125,
      "닥": 1126,
      "쉽": 1127,
      "템": 1128,
      "듣": 1129,
      "넣": 1130,
      "즘": 1131,
      "얻": 1132,
      "략": 1133,
      "킬": 1134,
      "탁": 1135,
      "꼭": 1136,
      "슈": 1137,
      "킨": 1138,
      "낙": 1139,
      "뜻": 1140,
      "털": 1141,
      "쓸": 1142,
      "뭘": 1143,
      "솔": 1144,
      "끄": 1145,
      "맛": 1146,
      "H": 1147,
      "냈": 1148,
      "칠": 1149,
      "릭": 1150,
      "젠": 1151,
      "쳤": 1152,
      "=": 1153,
      "짱": 1154,
      "땅": 1155,
      "칭": 1156,
      "뛰": 1157,
      "흥": 1158,
      "엘": 1159,
      "럴": 1160,
      "뜨": 1161,
      "멍": 1162,
      ";": 1163,
      "링": 1164,
      "U": 1165,
      "램": 1166,
      "랐": 1167,
      "엇": 1168,
      "셔": 1169,
      "빈": 1170,
      "맹": 1171,
      "턴": 1172,
      "맡": 1173,
      "쌍": 1174,
      "y": 1175,
      "팬": 1176,
      "휘": 1177,
      "ㅈ": 1178,
      "걱": 1179,
      "콘": 1180,
      "겼": 1181,
      "혐": 1182,
      "ㅜ": 1183,
      "빌": 1184,
      "b": 1185,
      "곤": 1186,
      "졸": 1187,
      "납": 1188,
      "벤": 1189,
      "셨": 1190,
      "혈": 1191,
      "섭": 1192,
      "벽": 1193,
      ">": 1194,
      "w": 1195,
      "헤": 1196,
      "롭": 1197,
      "힌": 1198,
      "홈": 1199,
      "+": 1200,
      "벨": 1201,
      "X": 1202,
      "ㅇ": 1203,
      "룹": 1204,
      "W": 1205,
      "쓴": 1206,
      "꾼": 1207,
      "컨": 1208,
      "덜": 1209,
      "ㄴ": 1210,
      "넷": 1211,
      "둥": 1212,
      "짝": 1213,
      "킹": 1214,
      "멀": 1215,
      "v": 1216,
      "<": 1217,
      "픽": 1218,
      "텔": 1219,
      "렴": 1220,
      "즉": 1221,
      "줬": 1222,
      "쁜": 1223,
      "잇": 1224,
      "둔": 1225,
      "ㄱ": 1226,
      "렵": 1227,
      "딩": 1228,
      "즐": 1229,
      "쩌": 1230,
      "깝": 1231,
      "칼": 1232,
      "춘": 1233,
      "델": 1234,
      "촉": 1235,
      "튼": 1236,
      "웠": 1237,
      "챙": 1238,
      "꿈": 1239,
      "웅": 1240,
      "짐": 1241,
      "삶": 1242,
      "멸": 1243,
      "웨": 1244,
      "딴": 1245,
      "맘": 1246,
      "*": 1247,
      "흔": 1248,
      "탕": 1249,
      "ㅂ": 1250,
      "팩": 1251,
      "젊": 1252,
      "첩": 1253,
      "읽": 1254,
      "묻": 1255,
      "몬": 1256,
      "뢰": 1257,
      "쥐": 1258,
      "싱": 1259,
      "f": 1260,
      "깔": 1261,
      "J": 1262,
      "곧": 1263,
      "뤄": 1264,
      "랍": 1265,
      "슷": 1266,
      "앉": 1267,
      "썩": 1268,
      "뀌": 1269,
      "푸": 1270,
      "맥": 1271,
      "ㄷ": 1272,
      "ㄹ": 1273,
      "낼": 1274,
      "흐": 1275,
      "춰": 1276,
      "x": 1277,
      "므": 1278,
      "섬": 1279,
      "녹": 1280,
      "빵": 1281,
      "쇄": 1282,
      "뿌": 1283,
      "됨": 1284,
      "괜": 1285,
      "벗": 1286,
      "닐": 1287,
      "촌": 1288,
      "깐": 1289,
      "넌": 1290,
      "렌": 1291,
      "컬": 1292,
      "촛": 1293,
      "홀": 1294,
      "△": 1295,
      "펼": 1296,
      "빛": 1297,
      "닝": 1298,
      "칙": 1299,
      "탑": 1300,
      "뒷": 1301,
      "찮": 1302,
      "잃": 1303,
      "늦": 1304,
      "겹": 1305,
      "#": 1306,
      "밤": 1307,
      "흘": 1308,
      "꽃": 1309,
      "빙": 1310,
      "펀": 1311,
      "켰": 1312,
      "묵": 1313,
      "몽": 1314,
      "쯤": 1315,
      "캠": 1316,
      "콜": 1317,
      "콩": 1318,
      "첨": 1319,
      "쁘": 1320,
      "랬": 1321,
      "묘": 1322,
      "뷰": 1323,
      "삭": 1324,
      "섰": 1325,
      "롱": 1326,
      "픈": 1327,
      "끔": 1328,
      "씬": 1329,
      "닭": 1330,
      "됩": 1331,
      "헛": 1332,
      "밑": 1333,
      "옷": 1334,
      "흡": 1335,
      "흑": 1336,
      "떼": 1337,
      "훨": 1338,
      "낌": 1339,
      "숭": 1340,
      "랙": 1341,
      "슴": 1342,
      "쩝": 1343,
      "컴": 1344,
      "끊": 1345,
      "옆": 1346,
      "멋": 1347,
      "딜": 1348,
      "닫": 1349,
      "릇": 1350,
      "낫": 1351,
      "떡": 1352,
      "뮤": 1353,
      "컵": 1354,
      "싼": 1355,
      "봄": 1356,
      "좃": 1357,
      "엉": 1358,
      "겪": 1359,
      "땐": 1360,
      "럭": 1361,
      "튜": 1362,
      "폴": 1363,
      "셈": 1364,
      "힐": 1365,
      "롤": 1366,
      "탐": 1367,
      "켓": 1368,
      "꼽": 1369,
      "덩": 1370,
      "헬": 1371,
      "옛": 1372,
      "샤": 1373,
      "퀴": 1374,
      "냉": 1375,
      "깊": 1376,
      "껴": 1377,
      "깜": 1378,
      "꿔": 1379,
      "춤": 1380,
      "&": 1381,
      "멘": 1382,
      "줌": 1383,
      "놔": 1384,
      "잊": 1385,
      "덤": 1386,
      "옹": 1387,
      "낳": 1388,
      "쩔": 1389,
      "렬": 1390,
      "냄": 1391,
      "렉": 1392,
      "㎡": 1393,
      "싹": 1394,
      "뜯": 1395,
      "굳": 1396,
      "옮": 1397,
      "걷": 1398,
      "렀": 1399,
      "잉": 1400,
      "쌓": 1401,
      "ㄲ": 1402,
      "빚": 1403,
      "둑": 1404,
      "겐": 1405,
      "겟": 1406,
      "Y": 1407,
      "릿": 1408,
      "∼": 1409,
      "`": 1410,
      "뭉": 1411,
      "갤": 1412,
      "칸": 1413,
      "덮": 1414,
      "껏": 1415,
      "넓": 1416,
      "붕": 1417,
      "벼": 1418,
      "ㅣ": 1419,
      "햇": 1420,
      "셀": 1421,
      "맙": 1422,
      "닉": 1423,
      "씀": 1424,
      "멤": 1425,
      "걍": 1426,
      "옳": 1427,
      "끈": 1428,
      "펴": 1429,
      "덧": 1430,
      "젤": 1431,
      "앗": 1432,
      "겸": 1433,
      "콤": 1434,
      "짖": 1435,
      "톤": 1436,
      "꼼": 1437,
      "끗": 1438,
      "놨": 1439,
      "튀": 1440,
      "쌀": 1441,
      "꿀": 1442,
      "쏟": 1443,
      "낭": 1444,
      "◆": 1445,
      "펜": 1446,
      "껄": 1447,
      "큐": 1448,
      "촬": 1449,
      "봅": 1450,
      "랭": 1451,
      "녕": 1452,
      "핀": 1453,
      "닙": 1454,
      "긋": 1455,
      "읍": 1456,
      "랫": 1457,
      "▲": 1458,
      "쏘": 1459,
      "흉": 1460,
      "앤": 1461,
      "썼": 1462,
      "쿨": 1463,
      "듬": 1464,
      "늙": 1465,
      "닛": 1466,
      "빅": 1467,
      "뷔": 1468,
      "젝": 1469,
      "윈": 1470,
      "둬": 1471,
      "엑": 1472,
      "긍": 1473,
      "룡": 1474,
      "탱": 1475,
      "폼": 1476,
      "빡": 1477,
      "퓨": 1478,
      "똘": 1479,
      "쇠": 1480,
      "쾌": 1481,
      "짧": 1482,
      "쯧": 1483,
      "셋": 1484,
      "앨": 1485,
      "눠": 1486,
      "꽤": 1487,
      "´": 1488,
      "밍": 1489,
      "밟": 1490,
      "봇": 1491,
      "렁": 1492,
      "톡": 1493,
      "헐": 1494,
      "틴": 1495,
      "땜": 1496,
      "쑈": 1497,
      "쪼": 1498,
      "챔": 1499,
      "j": 1500,
      "톱": 1501,
      "숫": 1502,
      "텍": 1503,
      "듀": 1504,
      "옵": 1505,
      "듭": 1506,
      "낀": 1507,
      "룩": 1508,
      "띄": 1509,
      "떳": 1510,
      "→": 1511,
      "덴": 1512,
      "훼": 1513,
      "륙": 1514,
      "엽": 1515,
      "맺": 1516,
      "틱": 1517,
      "밴": 1518,
      "횡": 1519,
      "엠": 1520,
      "돕": 1521,
      "훌": 1522,
      "셜": 1523,
      "]": 1524,
      "넥": 1525,
      "댄": 1526,
      "[": 1527,
      "앱": 1528,
      "팽": 1529,
      "삽": 1530,
      "ㅁ": 1531,
      "씹": 1532,
      "푼": 1533,
      "낄": 1534,
      "㎞": 1535,
      "쉐": 1536,
      "짤": 1537,
      "깡": 1538,
      "쉴": 1539,
      "굉": 1540,
      "뱅": 1541,
      "룬": 1542,
      "륜": 1543,
      "뼈": 1544,
      "뚜": 1545,
      "멈": 1546,
      "씌": 1547,
      "◇": 1548,
      "컷": 1549,
      "벙": 1550,
      "쫓": 1551,
      "섹": 1552,
      "Q": 1553,
      "_": 1554,
      "엿": 1555,
      "펙": 1556,
      "곽": 1557,
      "■": 1558,
      "릉": 1559,
      "닮": 1560,
      "믹": 1561,
      "냅": 1562,
      "섯": 1563,
      "뚫": 1564,
      "뚱": 1565,
      "윗": 1566,
      "좁": 1567,
      "갓": 1568,
      "뺏": 1569,
      "ㅆ": 1570,
      "핸": 1571,
      "룰": 1572,
      "쿄": 1573,
      "괄": 1574,
      "○": 1575,
      "돋": 1576,
      "앵": 1577,
      "녁": 1578,
      "ㅐ": 1579,
      "낯": 1580,
      "Z": 1581,
      "숲": 1582,
      "밭": 1583,
      "눌": 1584,
      "맵": 1585,
      "륭": 1586,
      "ㅊ": 1587,
      "틸": 1588,
      "룸": 1589,
      "찔": 1590,
      "묶": 1591,
      "랩": 1592,
      "틈": 1593,
      "왠": 1594,
      "뿔": 1595,
      "왼": 1596,
      "z": 1597,
      "뻥": 1598,
      "뜬": 1599,
      "댕": 1600,
      "옴": 1601,
      "쩍": 1602,
      "늠": 1603,
      "섞": 1604,
      "삐": 1605,
      "뚝": 1606,
      "쟤": 1607,
      "밸": 1608,
      "턱": 1609,
      "딘": 1610,
      "쩡": 1611,
      "잣": 1612,
      "깃": 1613,
      "눔": 1614,
      "팍": 1615,
      "갚": 1616,
      "뒀": 1617,
      "팡": 1618,
      "웬": 1619,
      "찢": 1620,
      "셉": 1621,
      "븐": 1622,
      "쫄": 1623,
      "몫": 1624,
      "웹": 1625,
      "멜": 1626,
      "겉": 1627,
      "땡": 1628,
      "쏠": 1629,
      "쫌": 1630,
      "좆": 1631,
      "훠": 1632,
      "뇬": 1633,
      "샷": 1634,
      "픔": 1635,
      "닷": 1636,
      "쥬": 1637,
      "뽕": 1638,
      "퀘": 1639,
      "궤": 1640,
      "썬": 1641,
      "벅": 1642,
      "곱": 1643,
      "뀐": 1644,
      "땀": 1645,
      "곰": 1646,
      "됬": 1647,
      "녔": 1648,
      "뱉": 1649,
      "왈": 1650,
      "줍": 1651,
      "흠": 1652,
      "띠": 1653,
      "쭉": 1654,
      "굶": 1655,
      "덱": 1656,
      "젓": 1657,
      "깎": 1658,
      "빗": 1659,
      "엮": 1660,
      "뉘": 1661,
      "찐": 1662,
      "캔": 1663,
      "@": 1664,
      "릎": 1665,
      "랏": 1666,
      "펑": 1667,
      "굽": 1668,
      "꼰": 1669,
      "셰": 1670,
      "붉": 1671,
      "샘": 1672,
      "뻘": 1673,
      "늬": 1674,
      "퉤": 1675,
      "얀": 1676,
      "쏴": 1677,
      "렷": 1678,
      "샌": 1679,
      "엎": 1680,
      "췄": 1681,
      "굿": 1682,
      "ㅏ": 1683,
      "쎄": 1684,
      "꼈": 1685,
      "쑤": 1686,
      "🐕": 1687,
      "믄": 1688,
      "렛": 1689,
      "캡": 1690,
      "뻐": 1691,
      "뜩": 1692,
      "콧": 1693,
      "뇨": 1694,
      "뱃": 1695,
      "빤": 1696,
      "겄": 1697,
      "톨": 1698,
      "궐": 1699,
      "랴": 1700,
      "헨": 1701,
      "럿": 1702,
      "닦": 1703,
      "젖": 1704,
      "컸": 1705,
      "껍": 1706,
      "붓": 1707,
      "롬": 1708,
      "샀": 1709,
      "낚": 1710,
      "넉": 1711,
      "닿": 1712,
      "꺾": 1713,
      "깽": 1714,
      "꽂": 1715,
      "팝": 1716,
      "밌": 1717,
      "핏": 1718,
      "펠": 1719,
      "씻": 1720,
      "꽁": 1721,
      "켄": 1722,
      "뱀": 1723,
      "둠": 1724,
      "릅": 1725,
      "껀": 1726,
      "훔": 1727,
      "칫": 1728,
      "빽": 1729,
      "볍": 1730,
      "뽀": 1731,
      "쿼": 1732,
      "탠": 1733,
      "텅": 1734,
      "칩": 1735,
      "빕": 1736,
      "넨": 1737,
      "흙": 1738,
      "텀": 1739,
      "쁨": 1740,
      "슥": 1741,
      "킥": 1742,
      "쌩": 1743,
      "흰": 1744,
      "끓": 1745,
      "핫": 1746,
      "멕": 1747,
      "횟": 1748,
      "뜰": 1749,
      "윙": 1750,
      "웰": 1751,
      "}": 1752,
      "팎": 1753,
      "깍": 1754,
      "얹": 1755,
      "킷": 1756,
      "솟": 1757,
      "곁": 1758,
      "휩": 1759,
      "퉁": 1760,
      "《": 1761,
      "쨌": 1762,
      "쯔": 1763,
      "킴": 1764,
      "잦": 1765,
      "▷": 1766,
      "뭣": 1767,
      "ㅌ": 1768,
      "ㅗ": 1769,
      "켈": 1770,
      "갇": 1771,
      "윌": 1772,
      "맑": 1773,
      "궈": 1774,
      "▶": 1775,
      "툭": 1776,
      "걔": 1777,
      "㈜": 1778,
      "뒈": 1779,
      "잭": 1780,
      "몹": 1781,
      "짚": 1782,
      "댐": 1783,
      "툰": 1784,
      "》": 1785,
      "댁": 1786,
      "쩐": 1787,
      "쑥": 1788,
      "썰": 1789,
      "캬": 1790,
      "쿵": 1791,
      "꽉": 1792,
      "㎏": 1793,
      "볶": 1794,
      "슛": 1795,
      "쌈": 1796,
      "쭈": 1797,
      "앓": 1798,
      "잎": 1799,
      "댈": 1800,
      "삥": 1801,
      "씁": 1802,
      "쫒": 1803,
      "톰": 1804,
      "뤘": 1805,
      "엣": 1806,
      "얄": 1807,
      "꿨": 1808,
      "늑": 1809,
      "쟈": 1810,
      "렐": 1811,
      "펄": 1812,
      "뭇": 1813,
      "넬": 1814,
      "●": 1815,
      "빔": 1816,
      "낱": 1817,
      "―": 1818,
      "숍": 1819,
      "딪": 1820,
      "갯": 1821,
      "솜": 1822,
      "️": 1823,
      "첼": 1824,
      "딨": 1825,
      "햄": 1826,
      "쩜": 1827,
      "렘": 1828,
      "꿇": 1829,
      "늄": 1830,
      "뎅": 1831,
      "퀄": 1832,
      "왓": 1833,
      "q": 1834,
      "훗": 1835,
      "뿜": 1836,
      "탔": 1837,
      "잼": 1838,
      "콕": 1839,
      "펌": 1840,
      "떵": 1841,
      "휠": 1842,
      "ㅍ": 1843,
      "샵": 1844,
      "툼": 1845,
      "캄": 1846,
      "짠": 1847,
      "뀔": 1848,
      "돔": 1849,
      "밋": 1850,
      "댔": 1851,
      "퓰": 1852,
      "찜": 1853,
      "헝": 1854,
      "숟": 1855,
      "×": 1856,
      "텨": 1857,
      "얽": 1858,
      "힙": 1859,
      "푹": 1860,
      "햐": 1861,
      "쉰": 1862,
      "붐": 1863,
      "꿰": 1864,
      "뻗": 1865,
      "캘": 1866,
      "삿": 1867,
      "넹": 1868,
      "샛": 1869,
      "♥": 1870,
      "킵": 1871,
      "㎝": 1872,
      "꺄": 1873,
      "★": 1874,
      "쏙": 1875,
      "갸": 1876,
      "홧": 1877,
      "밉": 1878,
      "퀸": 1879,
      "풋": 1880,
      "깥": 1881,
      "꾀": 1882,
      "「": 1883,
      "」": 1884,
      "쿡": 1885,
      "츄": 1886,
      "쌔": 1887,
      "|": 1888,
      "긁": 1889,
      "뺀": 1890,
      "굵": 1891,
      "뺨": 1892,
      "뎌": 1893,
      "²": 1894,
      "짬": 1895,
      "뵈": 1896,
      "ｍ": 1897,
      "ㅓ": 1898,
      "렙": 1899,
      "＂": 1900,
      "팟": 1901,
      "덥": 1902,
      "폄": 1903,
      "쏜": 1904,
      "꾹": 1905,
      "툴": 1906,
      "윽": 1907,
      "딧": 1908,
      "펫": 1909,
      "헷": 1910,
      "귄": 1911,
      "짙": 1912,
      "얇": 1913,
      "낡": 1914,
      "멧": 1915,
      "👍": 1916,
      "뻑": 1917,
      "뺑": 1918,
      "뭄": 1919,
      "떴": 1920,
      "뽐": 1921,
      "섀": 1922,
      "띨": 1923,
      "껑": 1924,
      "뮬": 1925,
      "슐": 1926,
      "쉼": 1927,
      "뚤": 1928,
      "벳": 1929,
      "깁": 1930,
      "듈": 1931,
      "탯": 1932,
      "㎜": 1933,
      "텃": 1934,
      "얌": 1935,
      "껌": 1936,
      "흩": 1937,
      "졋": 1938,
      "챌": 1939,
      "뜸": 1940,
      "％": 1941,
      "퍽": 1942,
      "븅": 1943,
      "풉": 1944,
      "셧": 1945,
      "륨": 1946,
      "❤": 1947,
      "ー": 1948,
      "\\": 1949,
      "쾅": 1950,
      "ㅔ": 1951,
      "탭": 1952,
      "맷": 1953,
      "겔": 1954,
      "썸": 1955,
      "괘": 1956,
      "찼": 1957,
      "☆": 1958,
      "돠": 1959,
      "쉑": 1960,
      "싣": 1961,
      "💙": 1962,
      "핍": 1963,
      "엥": 1964,
      "봣": 1965,
      "탬": 1966,
      "ㄸ": 1967,
      "떄": 1968,
      "뛴": 1969,
      "팜": 1970,
      "ㅕ": 1971,
      "앰": 1972,
      "깟": 1973,
      "돗": 1974,
      "벡": 1975,
      "챈": 1976,
      "・": 1977,
      "ℓ": 1978,
      "썪": 1979,
      "꿍": 1980,
      "벚": 1981,
      "딕": 1982,
      "훅": 1983,
      "꽈": 1984,
      "훤": 1985,
      "얍": 1986,
      "찝": 1987,
      "젼": 1988,
      "끽": 1989,
      "짭": 1990,
      "줏": 1991,
      "팁": 1992,
      "꿋": 1993,
      "꺽": 1994,
      "랖": 1995,
      "텝": 1996,
      "썅": 1997,
      "챠": 1998,
      "쒸": 1999,
      "맏": 2000,
      "귤": 2001,
      "샐": 2002,
      "볕": 2003,
      "깅": 2004,
      "퉷": 2005,
      " ": 2006,
      "뤼": 2007,
      "$": 2008,
      "샹": 2009,
      "꽝": 2010,
      "뎀": 2011,
      "홉": 2012,
      "쥔": 2013,
      "띈": 2014,
      "뺄": 2015,
      "슘": 2016,
      "딛": 2017,
      "둡": 2018,
      "넼": 2019,
      "눕": 2020,
      "솥": 2021,
      "찡": 2022,
      "①": 2023,
      "냔": 2024,
      "좇": 2025,
      "샴": 2026,
      "뉜": 2027,
      "촘": 2028,
      "핥": 2029,
      "뮌": 2030,
      "튬": 2031,
      "땠": 2032,
      "쵸": 2033,
      "됫": 2034,
      "엌": 2035,
      "겜": 2036,
      "뭡": 2037,
      "첸": 2038,
      "줫": 2039,
      "헉": 2040,
      "뺐": 2041,
      "딥": 2042,
      "쿤": 2043,
      "{": 2044,
      "팠": 2045,
      "뮈": 2046,
      "늪": 2047,
      "캣": 2048,
      "튕": 2049,
      "죗": 2050,
      "ㅃ": 2051,
      "😡": 2052,
      "ン": 2053,
      "옐": 2054,
      "췌": 2055,
      "찿": 2056,
      "뛸": 2057,
      "눴": 2058,
      "팰": 2059,
      "갭": 2060,
      "뎃": 2061,
      "썻": 2062,
      "쁠": 2063,
      "혓": 2064,
      "②": 2065,
      "뽄": 2066,
      "콥": 2067,
      "콰": 2068,
      "챕": 2069,
      "씽": 2070,
      "쟎": 2071,
      "웍": 2072,
      "굼": 2073,
      "싯": 2074,
      "숴": 2075,
      "팥": 2076,
      "댜": 2077,
      "칵": 2078,
      "즙": 2079,
      "옌": 2080,
      "샅": 2081,
      "쎈": 2082,
      "넛": 2083,
      "쪄": 2084,
      "셸": 2085,
      "곶": 2086,
      "맴": 2087,
      "띵": 2088,
      "쌤": 2089,
      "갠": 2090,
      "얕": 2091,
      "폈": 2092,
      "🐦": 2093,
      "춥": 2094,
      "륵": 2095,
      "룻": 2096,
      "잽": 2097,
      "캉": 2098,
      "걀": 2099,
      "🇰": 2100,
      "웜": 2101,
      "왤": 2102,
      "뺌": 2103,
      "↑": 2104,
      "겡": 2105,
      "섣": 2106,
      "탤": 2107,
      "깬": 2108,
      "됀": 2109,
      "숱": 2110,
      "큘": 2111,
      "썹": 2112,
      "귓": 2113,
      "퐁": 2114,
      "『": 2115,
      "』": 2116,
      "웁": 2117,
      "↓": 2118,
      "쌌": 2119,
      "띤": 2120,
      "펭": 2121,
      "멱": 2122,
      "랗": 2123,
      "짊": 2124,
      "㎢": 2125,
      "빴": 2126,
      "쨋": 2127,
      "쐈": 2128,
      "뼛": 2129,
      "쌉": 2130,
      "컥": 2131,
      "썽": 2132,
      "〉": 2133,
      "캥": 2134,
      "쐐": 2135,
      "씸": 2136,
      "됏": 2137,
      "딤": 2138,
      "〈": 2139,
      "졷": 2140,
      "뭍": 2141,
      "꿉": 2142,
      "쭝": 2143,
      "궂": 2144,
      "밧": 2145,
      "엊": 2146,
      "퀵": 2147,
      "ㅑ": 2148,
      "샬": 2149,
      "🐶": 2150,
      "욧": 2151,
      "※": 2152,
      "젯": 2153,
      "꿎": 2154,
      "◈": 2155,
      "컫": 2156,
      "랠": 2157,
      "🇵": 2158,
      "퇘": 2159,
      "헥": 2160,
      "욘": 2161,
      "샠": 2162,
      "횃": 2163,
      "겻": 2164,
      "넋": 2165,
      "㎥": 2166,
      "℃": 2167,
      "Ⅱ": 2168,
      "👏": 2169,
      "겅": 2170,
      "•": 2171,
      "팸": 2172,
      "찻": 2173,
      "뾰": 2174,
      "쳣": 2175,
      "쫙": 2176,
      "갉": 2177,
      "쫑": 2178,
      "＝": 2179,
      "믈": 2180,
      "③": 2181,
      "▼": 2182,
      "닳": 2183,
      "イ": 2184,
      "숩": 2185,
      "샊": 2186,
      "욜": 2187,
      "팻": 2188,
      "땄": 2189,
      "깠": 2190,
      "앴": 2191,
      "】": 2192,
      "㏊": 2193,
      "ル": 2194,
      "【": 2195,
      "쬐": 2196,
      "퉈": 2197,
      "ㅄ": 2198,
      "픕": 2199,
      "밈": 2200,
      "잤": 2201,
      "ス": 2202,
      "닼": 2203,
      "벵": 2204,
      "․": 2205,
      "뻣": 2206,
      "🇷": 2207,
      "늉": 2208,
      "몆": 2209,
      "텟": 2210,
      "괭": 2211,
      "눅": 2212,
      "□": 2213,
      "룽": 2214,
      "웩": 2215,
      "왁": 2216,
      "홋": 2217,
      "쓱": 2218,
      "괌": 2219,
      "죤": 2220,
      "덫": 2221,
      "숏": 2222,
      "넸": 2223,
      "읊": 2224,
      "빳": 2225,
      "췬": 2226,
      "젬": 2227,
      "잿": 2228,
      "찹": 2229,
      "넝": 2230,
      "녘": 2231,
      "춧": 2232,
      "콱": 2233,
      "갛": 2234,
      "뿍": 2235,
      "뒹": 2236,
      "띔": 2237,
      "ラ": 2238,
      "듦": 2239,
      "㎾": 2240,
      "켠": 2241,
      "а": 2242,
      "덟": 2243,
      "냇": 2244,
      "뗀": 2245,
      "튈": 2246,
      "뇽": 2247,
      "잰": 2248,
      "💜": 2249,
      "켐": 2250,
      "｜": 2251,
      "←": 2252,
      "🤣": 2253,
      "츤": 2254,
      "튠": 2255,
      "츰": 2256,
      "ト": 2257,
      "쌕": 2258,
      "깰": 2259,
      "쨩": 2260,
      "쉘": 2261,
      "킈": 2262,
      "셐": 2263,
      "튄": 2264,
      "🤬": 2265,
      "얏": 2266,
      "숯": 2267,
      "쑨": 2268,
      "♪": 2269,
      "얗": 2270,
      "촐": 2271,
      "ｔ": 2272,
      "퀀": 2273,
      "맣": 2274,
      "빻": 2275,
      "텼": 2276,
      "갬": 2277,
      "リ": 2278,
      "긔": 2279,
      "뢀": 2280,
      "🇯": 2281,
      "꺠": 2282,
      "😱": 2283,
      "о": 2284,
      "넵": 2285,
      "낍": 2286,
      "ッ": 2287,
      "🖕": 2288,
      "뵙": 2289,
      "앜": 2290,
      "삘": 2291,
      "멩": 2292,
      "쭐": 2293,
      "챘": 2294,
      "㎎": 2295,
      "㎖": 2296,
      "뗄": 2297,
      "탰": 2298,
      "컹": 2299,
      "‧": 2300,
      "녜": 2301,
      "캅": 2302,
      "😠": 2303,
      "큽": 2304,
      "ク": 2305,
      "옘": 2306,
      "됌": 2307,
      "냠": 2308,
      "쥑": 2309,
      "✔": 2310,
      "🏻": 2311,
      "꼿": 2312,
      "∙": 2313,
      "냨": 2314,
      "셍": 2315,
      "왑": 2316,
      "넙": 2317,
      "쫘": 2318,
      "ア": 2319,
      "뫼": 2320,
      "텁": 2321,
      "틋": 2322,
      "튿": 2323,
      "톈": 2324,
      "웟": 2325,
      "갰": 2326,
      "쭵": 2327,
      "빰": 2328,
      "↔": 2329,
      "い": 2330,
      "궜": 2331,
      "뮐": 2332,
      "쌰": 2333,
      "욤": 2334,
      "캇": 2335,
      "뻤": 2336,
      "몄": 2337,
      "깼": 2338,
      "젔": 2339,
      "얜": 2340,
      "뤠": 2341,
      "짰": 2342,
      "😂": 2343,
      "짘": 2344,
      "훑": 2345,
      "윕": 2346,
      "핌": 2347,
      "꽥": 2348,
      "－": 2349,
      "е": 2350,
      "Ⅰ": 2351,
      "뀜": 2352,
      "괸": 2353,
      "핼": 2354,
      "④": 2355,
      "и": 2356,
      "찟": 2357,
      "끠": 2358,
      "ん": 2359,
      "ㅛ": 2360,
      "👎": 2361,
      "챗": 2362,
      "샨": 2363,
      "뗐": 2364,
      "ド": 2365,
      "듸": 2366,
      "🔥": 2367,
      "낑": 2368,
      "㎿": 2369,
      "볐": 2370,
      "놧": 2371,
      "솎": 2372,
      "숀": 2373,
      "쫀": 2374,
      "쳇": 2375,
      "앎": 2376,
      "н": 2377,
      "▽": 2378,
      "±": 2379,
      "😁": 2380,
      "윅": 2381,
      "쫏": 2382,
      "켯": 2383,
      "슌": 2384,
      "│": 2385,
      "곪": 2386,
      "🔴": 2387,
      "먄": 2388,
      "쥘": 2389,
      "뎈": 2390,
      "맬": 2391,
      "붇": 2392,
      "촟": 2393,
      "쥰": 2394,
      "맟": 2395,
      "㎍": 2396,
      "뿅": 2397,
      "캭": 2398,
      "옅": 2399,
      "슝": 2400,
      "끙": 2401,
      "씰": 2402,
      "읎": 2403,
      "쐬": 2404,
      "폿": 2405,
      "롸": 2406,
      "α": 2407,
      "р": 2408,
      "옇": 2409,
      "좉": 2410,
      "펩": 2411,
      "휼": 2412,
      "シ": 2413,
      "쟌": 2414,
      "밷": 2415,
      "💕": 2416,
      "앖": 2417,
      "🐖": 2418,
      "‍": 2419,
      "뷸": 2420,
      "–": 2421,
      "쥴": 2422,
      "쯪": 2423,
      "뎁": 2424,
      "쇳": 2425,
      "─": 2426,
      "뎠": 2427,
      "쨍": 2428,
      "앳": 2429,
      "틔": 2430,
      "❌": 2431,
      "❗": 2432,
      "🐷": 2433,
      "힝": 2434,
      "넴": 2435,
      "윳": 2436,
      "낵": 2437,
      "댑": 2438,
      "눼": 2439,
      "🙏": 2440,
      "뼉": 2441,
      "롄": 2442,
      "즤": 2443,
      "싀": 2444,
      "レ": 2445,
      "잏": 2446,
      "マ": 2447,
      "훙": 2448,
      "튭": 2449,
      "헹": 2450,
      "엾": 2451,
      "タ": 2452,
      "퀼": 2453,
      "켤": 2454,
      "ロ": 2455,
      "겋": 2456,
      "😍": 2457,
      "뮨": 2458,
      "둣": 2459,
      "フ": 2460,
      "！": 2461,
      "밣": 2462,
      "т": 2463,
      "カ": 2464,
      "с": 2465,
      "땟": 2466,
      "숄": 2467,
      "쿰": 2468,
      "껐": 2469,
      "긱": 2470,
      "뗏": 2471,
      "귝": 2472,
      "↘": 2473,
      "셴": 2474,
      "삑": 2475,
      "곸": 2476,
      "읏": 2477,
      "콴": 2478,
      "쒜": 2479,
      "휙": 2480,
      "첬": 2481,
      "첵": 2482,
      "탉": 2483,
      "⑤": 2484,
      "う": 2485,
      "윔": 2486,
      "な": 2487,
      "☎": 2488,
      "꿩": 2489,
      "밎": 2490,
      "슙": 2491,
      "💚": 2492,
      "렝": 2493,
      "땔": 2494,
      "ジ": 2495,
      "돛": 2496,
      "っ": 2497,
      "딲": 2498,
      "툽": 2499,
      "놉": 2500,
      "돤": 2501,
      "셩": 2502,
      "뭥": 2503,
      "깻": 2504,
      "셌": 2505,
      "잌": 2506,
      "キ": 2507,
      "띁": 2508,
      "쉨": 2509,
      "숑": 2510,
      "헴": 2511,
      "졍": 2512,
      "핧": 2513,
      "먀": 2514,
      "쵝": 2515,
      "쟝": 2516,
      "😤": 2517,
      "헙": 2518,
      "し": 2519,
      "촞": 2520,
      "​": 2521,
      "죵": 2522,
      "é": 2523,
      "☞": 2524,
      "킁": 2525,
      "뱌": 2526,
      "랔": 2527,
      "겆": 2528,
      "Ⅲ": 2529,
      "짢": 2530,
      "튤": 2531,
      "か": 2532,
      "в": 2533,
      "쁩": 2534,
      "얔": 2535,
      "샥": 2536,
      "👹": 2537,
      "깉": 2538,
      "뺴": 2539,
      "톳": 2540,
      "뇸": 2541,
      "뽁": 2542,
      "욬": 2543,
      "햅": 2544,
      "웡": 2545,
      "л": 2546,
      "♡": 2547,
      "쨔": 2548,
      "㏄": 2549,
      "솨": 2550,
      "겧": 2551,
      "됄": 2552,
      "몃": 2553,
      "촨": 2554,
      "🎶": 2555,
      "😎": 2556,
      "몀": 2557,
      "：": 2558,
      "휜": 2559,
      "줜": 2560,
      "の": 2561,
      "バ": 2562,
      "ィ": 2563,
      "к": 2564,
      "텄": 2565,
      "툇": 2566,
      "옻": 2567,
      "쉔": 2568,
      "⊙": 2569,
      "힉": 2570,
      "봬": 2571,
      "횽": 2572,
      "졔": 2573,
      "힛": 2574,
      "괞": 2575,
      "た": 2576,
      "👉": 2577,
      "넜": 2578,
      "슭": 2579,
      "쭤": 2580,
      "쎅": 2581,
      "큭": 2582,
      "😈": 2583,
      "女": 2584,
      "ウ": 2585,
      "팼": 2586,
      "ｇ": 2587,
      "솝": 2588,
      "쨉": 2589,
      "즁": 2590,
      "땃": 2591,
      "맸": 2592,
      "멎": 2593,
      "윷": 2594,
      "짹": 2595,
      "뻬": 2596,
      "쉿": 2597,
      "オ": 2598,
      "😭": 2599,
      "놋": 2600,
      "눙": 2601,
      "읺": 2602,
      "죈": 2603,
      "°": 2604,
      "あ": 2605,
      "벋": 2606,
      "🏿": 2607,
      "죳": 2608,
      "⭕": 2609,
      "펍": 2610,
      "😆": 2611,
      "ま": 2612,
      "😄": 2613,
      "엡": 2614,
      "뷴": 2615,
      "촤": 2616,
      "ナ": 2617,
      "퀑": 2618,
      "쬬": 2619,
      "쩨": 2620,
      "젭": 2621,
      "쏭": 2622,
      "🇨": 2623,
      "귈": 2624,
      "쇅": 2625,
      "닻": 2626,
      "🤗": 2627,
      "윾": 2628,
      "🇳": 2629,
      "낰": 2630,
      "츨": 2631,
      "꼐": 2632,
      "츳": 2633,
      "퐈": 2634,
      "덯": 2635,
      "햏": 2636,
      "옭": 2637,
      "쓉": 2638,
      "켕": 2639,
      "ブ": 2640,
      "テ": 2641,
      "チ": 2642,
      "뿡": 2643,
      "젋": 2644,
      "サ": 2645,
      "쳬": 2646,
      "コ": 2647,
      "듐": 2648,
      "찧": 2649,
      "グ": 2650,
      "こ": 2651,
      "💖": 2652,
      "🔊": 2653,
      "♣": 2654,
      "‥": 2655,
      "㎒": 2656,
      "と": 2657,
      "［": 2658,
      "닠": 2659,
      "츈": 2660,
      "믜": 2661,
      "💩": 2662,
      "잴": 2663,
      "ャ": 2664,
      "д": 2665,
      "😊": 2666,
      "쑹": 2667,
      "싄": 2668,
      "꼇": 2669,
      "쌘": 2670,
      "り": 2671,
      "됴": 2672,
      "く": 2673,
      "ム": 2674,
      "굣": 2675,
      "ュ": 2676,
      "뽈": 2677,
      "エ": 2678,
      "퇫": 2679,
      "좔": 2680,
      "챤": 2681,
      "쒀": 2682,
      "쮸": 2683,
      "る": 2684,
      "．": 2685,
      "↙": 2686,
      "늣": 2687,
      "콸": 2688,
      "♂": 2689,
      "💛": 2690,
      "ミ": 2691,
      "펐": 2692,
      "μ": 2693,
      "ㅢ": 2694,
      "쌋": 2695,
      "デ": 2696,
      "갗": 2697,
      "볏": 2698,
      "뜀": 2699,
      "ち": 2700,
      "👊": 2701,
      "‼": 2702,
      "쪘": 2703,
      "ら": 2704,
      "😘": 2705,
      "깄": 2706,
      "⅓": 2707,
      "ダ": 2708,
      "㎓": 2709,
      "ガ": 2710,
      "—": 2711,
      "뮴": 2712,
      "곗": 2713,
      "〃": 2714,
      "텡": 2715,
      "プ": 2716,
      "м": 2717,
      "펨": 2718,
      "❓": 2719,
      "₂": 2720,
      "　": 2721,
      "껭": 2722,
      "쾰": 2723,
      "お": 2724,
      "뙤": 2725,
      "곘": 2726,
      "헀": 2727,
      "뵤": 2728,
      "랰": 2729,
      "듄": 2730,
      "～": 2731,
      "㈔": 2732,
      "핳": 2733,
      "횐": 2734,
      "몾": 2735,
      "챦": 2736,
      "켔": 2737,
      "パ": 2738,
      "メ": 2739,
      "쥭": 2740,
      "츙": 2741,
      "さ": 2742,
      "⑥": 2743,
      "♀": 2744,
      "믓": 2745,
      "〰": 2746,
      "☺": 2747,
      "쿱": 2748,
      "땋": 2749,
      "멓": 2750,
      "햔": 2751,
      "き": 2752,
      "⅔": 2753,
      "섺": 2754,
      "↗": 2755,
      "녓": 2756,
      "す": 2757,
      "ハ": 2758,
      "🤔": 2759,
      "ニ": 2760,
      "뵐": 2761,
      "🇺": 2762,
      "삔": 2763,
      "윰": 2764,
      "李": 2765,
      "◎": 2766,
      "뀝": 2767,
      "묜": 2768,
      "쟨": 2769,
      "빋": 2770,
      "땨": 2771,
      "🤮": 2772,
      "듵": 2773,
      "🐒": 2774,
      "у": 2775,
      "엏": 2776,
      "밨": 2777,
      "쭘": 2778,
      "랼": 2779,
      "셤": 2780,
      "🌶": 2781,
      "쾨": 2782,
      "🇸": 2783,
      "ü": 2784,
      "뱁": 2785,
      "뵹": 2786,
      "′": 2787,
      "갘": 2788,
      "😀": 2789,
      "듕": 2790,
      "줴": 2791,
      "옜": 2792,
      "✊": 2793,
      "💥": 2794,
      "퓌": 2795,
      "햬": 2796,
      "쯥": 2797,
      "🎗": 2798,
      "앟": 2799,
      "룐": 2800,
      "샜": 2801,
      "だ": 2802,
      "は": 2803,
      "곯": 2804,
      "좨": 2805,
      "й": 2806,
      "➡": 2807,
      "＋": 2808,
      "😮": 2809,
      "뽤": 2810,
      "😃": 2811,
      "뎨": 2812,
      "팹": 2813,
      "金": 2814,
      "で": 2815,
      "も": 2816,
      "쉈": 2817,
      "ェ": 2818,
      "죙": 2819,
      "땍": 2820,
      "욥": 2821,
      "뇰": 2822,
      "눗": 2823,
      "├": 2824,
      "👽": 2825,
      "뫄": 2826,
      "て": 2827,
      "ズ": 2828,
      "켁": 2829,
      "쫩": 2830,
      "쉒": 2831,
      "뀨": 2832,
      "닺": 2833,
      "샏": 2834,
      "😝": 2835,
      "떰": 2836,
      "칡": 2837,
      "뽜": 2838,
      "퓸": 2839,
      "꿘": 2840,
      "띌": 2841,
      "뺠": 2842,
      "☠": 2843,
      "、": 2844,
      "，": 2845,
      "뼘": 2846,
      "싢": 2847,
      "삯": 2848,
      "밬": 2849,
      "㎉": 2850,
      "둿": 2851,
      "쉭": 2852,
      "㎛": 2853,
      "👥": 2854,
      "⑦": 2855,
      "🔞": 2856,
      "🔵": 2857,
      "モ": 2858,
      "ゃ": 2859,
      "앚": 2860,
      "씝": 2861,
      "に": 2862,
      "💢": 2863,
      "💗": 2864,
      "웸": 2865,
      "멉": 2866,
      "🌋": 2867,
      "떽": 2868,
      "쥤": 2869,
      "쉥": 2870,
      "♬": 2871,
      "🤩": 2872,
      "똬": 2873,
      "🎉": 2874,
      "я": 2875,
      "꽹": 2876,
      "좡": 2877,
      "뭏": 2878,
      "묭": 2879,
      "푯": 2880,
      "릐": 2881,
      "よ": 2882,
      "멥": 2883,
      "🌸": 2884,
      "쳔": 2885,
      "ы": 2886,
      "즛": 2887,
      "믐": 2888,
      "짼": 2889,
      "쒝": 2890,
      "댸": 2891,
      "ビ": 2892,
      "먕": 2893,
      "뙈": 2894,
      "퍄": 2895,
      "🐀": 2896,
      "읻": 2897,
      "끕": 2898,
      "ㅖ": 2899,
      "ョ": 2900,
      "젛": 2901,
      "つ": 2902,
      "🎵": 2903,
      "좟": 2904,
      "챵": 2905,
      "쭙": 2906,
      "み": 2907,
      "￦": 2908,
      "쓔": 2909,
      "？": 2910,
      "핡": 2911,
      "쨰": 2912,
      "븍": 2913,
      "짆": 2914,
      "ワ": 2915,
      "싑": 2916,
      "텋": 2917,
      "👤": 2918,
      "엷": 2919,
      "ネ": 2920,
      "앂": 2921,
      "헸": 2922,
      "햤": 2923,
      "ァ": 2924,
      "🏼": 2925,
      "☏": 2926,
      "や": 2927,
      "믾": 2928,
      "＆": 2929,
      "†": 2930,
      "┌": 2931,
      "샙": 2932,
      "🌟": 2933,
      "ا": 2934,
      "칀": 2935,
      "뎐": 2936,
      "휑": 2937,
      "ノ": 2938,
      "뗘": 2939,
      "좝": 2940,
      "г": 2941,
      "쪕": 2942,
      "＜": 2943,
      "뼝": 2944,
      "랸": 2945,
      "＞": 2946,
      "밞": 2947,
      "짴": 2948,
      "ö": 2949,
      "⋯": 2950,
      "れ": 2951,
      "퍠": 2952,
      "ツ": 2953,
      "렿": 2954,
      "궄": 2955,
      "✨": 2956,
      "😅": 2957,
      "п": 2958,
      "푠": 2959,
      "ゴ": 2960,
      "륀": 2961,
      "が": 2962,
      "👿": 2963,
      "됍": 2964,
      "홰": 2965,
      "ο": 2966,
      "á": 2967,
      "™": 2968,
      "뱔": 2969,
      "섴": 2970,
      "ボ": 2971,
      "봘": 2972,
      "じ": 2973,
      "］": 2974,
      "ь": 2975,
      "냑": 2976,
      "볜": 2977,
      "싴": 2978,
      "わ": 2979,
      "읜": 2980,
      "ä": 2981,
      "뉸": 2982,
      "볌": 2983,
      "갹": 2984,
      "😉": 2985,
      "톄": 2986,
      "🐔": 2987,
      "뗑": 2988,
      "С": 2989,
      "놐": 2990,
      "헵": 2991,
      "띡": 2992,
      "б": 2993,
      "。": 2994,
      "꿏": 2995,
      "🚨": 2996,
      "슼": 2997,
      "🥰": 2998,
      "㏈": 2999,
      "걩": 3000,
      "🤪": 3001,
      "ᆞ": 3002,
      "뵌": 3003,
      "햌": 3004,
      "쉣": 3005,
      "솤": 3006,
      "⭐": 3007,
      "💓": 3008,
      "묠": 3009,
      "틍": 3010,
      "퉜": 3011,
      "😜": 3012,
      "듷": 3013,
      "붑": 3014,
      "냘": 3015,
      "겍": 3016,
      "❄": 3017,
      "븡": 3018,
      "젹": 3019,
      "옶": 3020,
      "뮛": 3021,
      "🤭": 3022,
      "ね": 3023,
      "잆": 3024,
      "セ": 3025,
      "✌": 3026,
      "꾜": 3027,
      "똔": 3028,
      "з": 3029,
      "쎌": 3030,
      "쏫": 3031,
      "젱": 3032,
      "읔": 3033,
      "햝": 3034,
      "됭": 3035,
      "샾": 3036,
      "ㅟ": 3037,
      "뭬": 3038,
      "솓": 3039,
      "ピ": 3040,
      "쐇": 3041,
      "꺅": 3042,
      "쫍": 3043,
      "죧": 3044,
      "핬": 3045,
      "˝": 3046,
      "궹": 3047,
      "댱": 3048,
      "💀": 3049,
      "핰": 3050,
      "졎": 3051,
      "딫": 3052,
      "떫": 3053,
      "줒": 3054,
      "옄": 3055,
      "ヴ": 3056,
      "®": 3057,
      "빱": 3058,
      "👌": 3059,
      "옙": 3060,
      "읭": 3061,
      "슉": 3062,
      "ı": 3063,
      "쌖": 3064,
      "め": 3065,
      "댘": 3066,
      "삵": 3067,
      "ν": 3068,
      "⁉": 3069,
      "깆": 3070,
      "묽": 3071,
      "섁": 3072,
      "そ": 3073,
      "ど": 3074,
      "섶": 3075,
      "숸": 3076,
      "え": 3077,
      "年": 3078,
      "꿧": 3079,
      "〓": 3080,
      "딹": 3081,
      "❣": 3082,
      "ケ": 3083,
      "돨": 3084,
      "쏱": 3085,
      "멊": 3086,
      "🚫": 3087,
      "꽐": 3088,
      "🔪": 3089,
      "👈": 3090,
      "씐": 3091,
      "🕊": 3092,
      "뤡": 3093,
      "뉠": 3094,
      "줭": 3095,
      "캍": 3096,
      "듁": 3097,
      "😗": 3098,
      "걘": 3099,
      "탸": 3100,
      "쾡": 3101,
      "얺": 3102,
      "닢": 3103,
      "🚀": 3104,
      "봨": 3105,
      "깞": 3106,
      "🕯": 3107,
      "👺": 3108,
      "쳥": 3109,
      "쯩": 3110,
      "줮": 3111,
      "샆": 3112,
      "즹": 3113,
      "ろ": 3114,
      "ㅒ": 3115,
      "켸": 3116,
      "삻": 3117,
      "샋": 3118,
      "쌨": 3119,
      "횔": 3120,
      "ⓒ": 3121,
      "쎼": 3122,
      "β": 3123,
      "껫": 3124,
      "㎸": 3125,
      "넒": 3126,
      "죌": 3127,
      "긕": 3128,
      "캤": 3129,
      "ч": 3130,
      "벰": 3131,
      "ザ": 3132,
      "Ⅳ": 3133,
      "뉨": 3134,
      "똭": 3135,
      "홑": 3136,
      "ソ": 3137,
      "윘": 3138,
      "け": 3139,
      "ギ": 3140,
      "㎚": 3141,
      "븨": 3142,
      "엤": 3143,
      "좄": 3144,
      "싷": 3145,
      "냣": 3146,
      "🍑": 3147,
      "뜽": 3148,
      "읗": 3149,
      "ふ": 3150,
      "τ": 3151,
      "♨": 3152,
      "쇤": 3153,
      "▣": 3154,
      "ベ": 3155,
      "ل": 3156,
      "왱": 3157,
      "맀": 3158,
      "💞": 3159,
      "ょ": 3160,
      "💣": 3161,
      "곀": 3162,
      "ρ": 3163,
      "㎘": 3164,
      "😷": 3165,
      "³": 3166,
      "챡": 3167,
      "셱": 3168,
      "ヒ": 3169,
      "켑": 3170,
      "렜": 3171,
      "ポ": 3172,
      "욹": 3173,
      "⑧": 3174,
      "냬": 3175,
      "뜹": 3176,
      "ς": 3177,
      "ㅘ": 3178,
      "젇": 3179,
      "🐮": 3180,
      "😬": 3181,
      "∞": 3182,
      "･": 3183,
      "ι": 3184,
      "🌹": 3185,
      "쑵": 3186,
      "봥": 3187,
      "🧡": 3188,
      "쮜": 3189,
      "샡": 3190,
      "늗": 3191,
      "€": 3192,
      "🌺": 3193,
      "盧": 3194,
      "빩": 3195,
      "◀": 3196,
      "💝": 3197,
      "뱡": 3198,
      "ォ": 3199,
      "뷩": 3200,
      "🐯": 3201,
      "뺍": 3202,
      "ó": 3203,
      "늕": 3204,
      "춍": 3205,
      "ㄳ": 3206,
      "⑨": 3207,
      "쒼": 3208,
      "🏽": 3209,
      "겊": 3210,
      "뿟": 3211,
      "횬": 3212,
      "똠": 3213,
      "짦": 3214,
      "茶": 3215,
      "닯": 3216,
      "😰": 3217,
      "긑": 3218,
      "햑": 3219,
      "뤽": 3220,
      "헣": 3221,
      "좍": 3222,
      "씅": 3223,
      "흄": 3224,
      "짯": 3225,
      "🐵": 3226,
      "ε": 3227,
      "줗": 3228,
      "굻": 3229,
      "〜": 3230,
      "햘": 3231,
      "😢": 3232,
      "쳉": 3233,
      "깤": 3234,
      "낟": 3235,
      "뺘": 3236,
      "핱": 3237,
      "섕": 3238,
      "푀": 3239,
      "맗": 3240,
      "뜷": 3241,
      "샣": 3242,
      "뷱": 3243,
      "휀": 3244,
      "😥": 3245,
      "닏": 3246,
      "😛": 3247,
      "í": 3248,
      "겝": 3249,
      "）": 3250,
      "ば": 3251,
      "흣": 3252,
      "칰": 3253,
      "쉅": 3254,
      "­": 3255,
      "⚠": 3256,
      "♠": 3257,
      "옺": 3258,
      "К": 3259,
      "촹": 3260,
      "ホ": 3261,
      "ヤ": 3262,
      "🔫": 3263,
      "웽": 3264,
      "뱐": 3265,
      "쟀": 3266,
      "😨": 3267,
      "÷": 3268,
      "썌": 3269,
      "М": 3270,
      "놰": 3271,
      "핮": 3272,
      "짇": 3273,
      "갼": 3274,
      "왘": 3275,
      "ひ": 3276,
      "걑": 3277,
      "끋": 3278,
      "😋": 3279,
      "왐": 3280,
      "챨": 3281,
      "ə": 3282,
      "엨": 3283,
      "꙼": 3284,
      "▨": 3285,
      "볘": 3286,
      "줠": 3287,
      "굥": 3288,
      "뗴": 3289,
      "🎈": 3290,
      "ш": 3291,
      "솽": 3292,
      "삣": 3293,
      "🚴": 3294,
      "👴": 3295,
      "캑": 3296,
      "А": 3297,
      "💪": 3298,
      "（": 3299,
      "뵨": 3300,
      "쥥": 3301,
      "쟉": 3302,
      "츌": 3303,
      "싨": 3304,
      "읇": 3305,
      "껜": 3306,
      "숼": 3307,
      "왝": 3308,
      "붸": 3309,
      "셕": 3310,
      "뛔": 3311,
      "В": 3312,
      "ゲ": 3313,
      "읿": 3314,
      "쏨": 3315,
      "믁": 3316,
      "😣": 3317,
      "﻿": 3318,
      "졀": 3319,
      "럐": 3320,
      "몌": 3321,
      "켬": 3322,
      "🐈": 3323,
      "돝": 3324,
      "🤯": 3325,
      "묀": 3326,
      "앍": 3327,
      "П": 3328,
      "돚": 3329,
      "쏵": 3330,
      "ㅞ": 3331,
      "🐙": 3332,
      "👅": 3333,
      "⛔": 3334,
      "せ": 3335,
      "잨": 3336,
      "벞": 3337,
      "♦": 3338,
      "녈": 3339,
      "먈": 3340,
      "х": 3341,
      "촣": 3342,
      "˚": 3343,
      "쎔": 3344,
      "죨": 3345,
      "죴": 3346,
      "잗": 3347,
      "홱": 3348,
      "ā": 3349,
      "죹": 3350,
      "✅": 3351,
      "λ": 3352,
      "쿈": 3353,
      "릏": 3354,
      "깸": 3355,
      "떱": 3356,
      "뭅": 3357,
      "톼": 3358,
      "뷜": 3359,
      "욌": 3360,
      "😑": 3361,
      "뚯": 3362,
      "얐": 3363,
      "👨": 3364,
      "짒": 3365,
      "뗌": 3366,
      "뱄": 3367,
      "떈": 3368,
      "컄": 3369,
      "ペ": 3370,
      "믕": 3371,
      "멏": 3372,
      "Р": 3373,
      "튐": 3374,
      "😧": 3375,
      "씼": 3376,
      "◾": 3377,
      "🦅": 3378,
      "띱": 3379,
      "팃": 3380,
      "π": 3381,
      "老": 3382,
      "닶": 3383,
      "＇": 3384,
      "ⓐ": 3385,
      "樂": 3386,
      "／": 3387,
      "뺃": 3388,
      "쿸": 3389,
      "붜": 3390,
      "뢔": 3391,
      "🙆": 3392,
      "🗣": 3393,
      "⚡": 3394,
      "쫗": 3395,
      "킼": 3396,
      "놯": 3397,
      "븽": 3398,
      "뚠": 3399,
      "§": 3400,
      "Φ": 3401,
      "✋": 3402,
      "쭌": 3403,
      "└": 3404,
      "γ": 3405,
      "촙": 3406,
      "ر": 3407,
      "🐽": 3408,
      "핣": 3409,
      "ω": 3410,
      "겤": 3411,
      "ご": 3412,
      "큅": 3413,
      "읹": 3414,
      "ゆ": 3415,
      "م": 3416,
      "핟": 3417,
      "📣": 3418,
      "🤦": 3419,
      "셓": 3420,
      "꿜": 3421,
      "묹": 3422,
      "쏩": 3423,
      "킄": 3424,
      "쎠": 3425,
      "💐": 3426,
      "🐩": 3427,
      "쇆": 3428,
      "퐝": 3429,
      "쎘": 3430,
      "촥": 3431,
      "☝": 3432,
      "ن": 3433,
      "꾿": 3434,
      "👣": 3435,
      "😵": 3436,
      "κ": 3437,
      "뻇": 3438,
      "셑": 3439,
      "쎀": 3440,
      "뉩": 3441,
      "σ": 3442,
      "≫": 3443,
      "굇": 3444,
      "귁": 3445,
      "ゅ": 3446,
      "퍈": 3447,
      "븥": 3448,
      "잫": 3449,
      "죷": 3450,
      "롷": 3451,
      "읕": 3452,
      "좈": 3453,
      "ي": 3454,
      "뤈": 3455,
      "뤌": 3456,
      "굔": 3457,
      "앝": 3458,
      "Ω": 3459,
      "ユ": 3460,
      "ç": 3461,
      "죕": 3462,
      "벹": 3463,
      "쨈": 3464,
      "쇗": 3465,
      "멨": 3466,
      "귐": 3467,
      "깢": 3468,
      "꾐": 3469,
      "🍎": 3470,
      "죡": 3471,
      "욍": 3472,
      "🥶": 3473,
      "퐉": 3474,
      "🤷": 3475,
      "😚": 3476,
      "궃": 3477,
      "👩": 3478,
      "볗": 3479,
      "켱": 3480,
      "⑩": 3481,
      "쾈": 3482,
      "솅": 3483,
      "뜁": 3484,
      "춴": 3485,
      "큿": 3486,
      "쀼": 3487,
      "닜": 3488,
      "봊": 3489,
      "뎡": 3490,
      "쇽": 3491,
      "럄": 3492,
      "뭤": 3493,
      "꽌": 3494,
      "ж": 3495,
      "≤": 3496,
      "픠": 3497,
      "쬭": 3498,
      "떙": 3499,
      "è": 3500,
      "슾": 3501,
      "뙨": 3502,
      "궉": 3503,
      "맜": 3504,
      "퐐": 3505,
      "🙋": 3506,
      "갂": 3507,
      "헿": 3508,
      "뻡": 3509,
      "🐓": 3510,
      "🌈": 3511,
      "ː": 3512,
      "깈": 3513,
      "Н": 3514,
      "🥳": 3515,
      "😇": 3516,
      "귿": 3517,
      "츼": 3518,
      "＃": 3519,
      "맆": 3520,
      "롹": 3521,
      "ㅚ": 3522,
      "🐅": 3523,
      "ㅝ": 3524,
      "딋": 3525,
      "ず": 3526,
      "밪": 3527,
      "읖": 3528,
      "샇": 3529,
      "≪": 3530,
      "퀭": 3531,
      "쑬": 3532,
      "찣": 3533,
      "븀": 3534,
      "🎊": 3535,
      "뱍": 3536,
      "몪": 3537,
      "🐥": 3538,
      "쏼": 3539,
      "췃": 3540,
      "빢": 3541,
      "땁": 3542,
      "쪈": 3543,
      "쥣": 3544,
      "눟": 3545,
      "΄": 3546,
      "🌙": 3547,
      "툥": 3548,
      "늫": 3549,
      "맄": 3550,
      "🦜": 3551,
      "뎬": 3552,
      "렠": 3553,
      "쟙": 3554,
      "🙌": 3555,
      "졓": 3556,
      "읃": 3557,
      "젙": 3558,
      "쐑": 3559,
      "킅": 3560,
      "꺵": 3561,
      "💟": 3562,
      "칮": 3563,
      "쫭": 3564,
      "눞": 3565,
      "Ⓐ": 3566,
      "곈": 3567,
      "💘": 3568,
      "닞": 3569,
      "😩": 3570,
      "ㄺ": 3571,
      "랒": 3572,
      "⇒": 3573,
      "닽": 3574,
      "딍": 3575,
      "읆": 3576,
      "و": 3577,
      "긷": 3578,
      "잋": 3579,
      "륄": 3580,
      "Д": 3581,
      "묫": 3582,
      "η": 3583,
      "뜾": 3584,
      "벛": 3585,
      "맇": 3586,
      "👄": 3587,
      "Г": 3588,
      "짗": 3589,
      "▪": 3590,
      "쟐": 3591,
      "💰": 3592,
      "믽": 3593,
      "쳄": 3594,
      "겈": 3595,
      "틑": 3596,
      "㎐": 3597,
      "밢": 3598,
      "깩": 3599,
      "😐": 3600,
      "핝": 3601,
      "맠": 3602,
      "돟": 3603,
      "잪": 3604,
      "갲": 3605,
      "룔": 3606,
      "슁": 3607,
      "쪙": 3608,
      "☢": 3609,
      "ц": 3610,
      "붤": 3611,
      "줙": 3612,
      "솩": 3613,
      "😙": 3614,
      "́": 3615,
      "흭": 3616,
      "ほ": 3617,
      "ɪ": 3618,
      "ぐ": 3619,
      "뫃": 3620,
      "옼": 3621,
      "И": 3622,
      "뻴": 3623,
      "숵": 3624,
      "쎆": 3625,
      "🏾": 3626,
      "Б": 3627,
      "😲": 3628,
      "ぶ": 3629,
      "쒞": 3630,
      "첮": 3631,
      "덪": 3632,
      "낏": 3633,
      "″": 3634,
      "〔": 3635,
      "앋": 3636,
      "㏃": 3637,
      "〕": 3638,
      "붘": 3639,
      "짔": 3640,
      "ヨ": 3641,
      "즨": 3642,
      "☀": 3643,
      "쩟": 3644,
      "얶": 3645,
      "볓": 3646,
      "🍀": 3647,
      "떔": 3648,
      "👑": 3649,
      "ⓑ": 3650,
      "👧": 3651,
      "📢": 3652,
      "칬": 3653,
      "읁": 3654,
      "♯": 3655,
      "쌬": 3656,
      "ゼ": 3657,
      "싈": 3658,
      "↖": 3659,
      "🙄": 3660,
      "벧": 3661,
      "돡": 3662,
      "ぁ": 3663,
      "욀": 3664,
      "🍒": 3665,
      "㎗": 3666,
      "늧": 3667,
      "끍": 3668,
      "�": 3669,
      "젏": 3670,
      "얨": 3671,
      "ゾ": 3672,
      "붱": 3673,
      "꿴": 3674,
      "Т": 3675,
      "궸": 3676,
      "뵜": 3677,
      "د": 3678,
      "몯": 3679,
      "む": 3680,
      "퉸": 3681,
      "🖤": 3682,
      "댖": 3683,
      "껬": 3684,
      "ヘ": 3685,
      "넖": 3686,
      "맢": 3687,
      "О": 3688,
      "😔": 3689,
      "헠": 3690,
      "얖": 3691,
      "ぼ": 3692,
      "잍": 3693,
      "쥼": 3694,
      "😫": 3695,
      "죸": 3696,
      "랃": 3697,
      "듲": 3698,
      "룀": 3699,
      "👋": 3700,
      "댠": 3701,
      "ί": 3702,
      "뎄": 3703,
      "뽂": 3704,
      "🔨": 3705,
      "😖": 3706,
      "🦶": 3707,
      "🛑": 3708,
      "ю": 3709,
      "ب": 3710,
      "맂": 3711,
      "웤": 3712,
      "튓": 3713,
      "쯕": 3714,
      "뷁": 3715,
      "🚩": 3716,
      "🐰": 3717,
      "ş": 3718,
      "█": 3719,
      "껒": 3720,
      "훓": 3721,
      "잟": 3722,
      "챰": 3723,
      "🐑": 3724,
      "쇡": 3725,
      "햣": 3726,
      "힣": 3727,
      "묙": 3728,
      "읶": 3729,
      "ㅙ": 3730,
      "곙": 3731,
      "ά": 3732,
      "º": 3733,
      "몿": 3734,
      "럈": 3735,
      "퓽": 3736,
      "훕": 3737,
      "흴": 3738,
      "θ": 3739,
      "😌": 3740,
      "뫈": 3741,
      "몈": 3742,
      "쟛": 3743,
      "폔": 3744,
      "à": 3745,
      "Ⅶ": 3746,
      "쪾": 3747,
      "😏": 3748,
      "び": 3749,
      "쿳": 3750,
      "빍": 3751,
      "쇜": 3752,
      "🐂": 3753,
      "럾": 3754,
      "쳑": 3755,
      "긇": 3756,
      "찎": 3757,
      "♤": 3758,
      "솰": 3759,
      "⃣": 3760,
      "뻰": 3761,
      "뫠": 3762,
      "쌂": 3763,
      "즥": 3764,
      "🔹": 3765,
      "ё": 3766,
      "㎠": 3767,
      "を": 3768,
      "υ": 3769,
      "옉": 3770,
      "햡": 3771,
      "＾": 3772,
      "뺵": 3773,
      "떢": 3774,
      "🌷": 3775,
      "좢": 3776,
      "−": 3777,
      "뇐": 3778,
      "🐤": 3779,
      "🤢": 3780,
      "픙": 3781,
      "덖": 3782,
      "짛": 3783,
      "졘": 3784,
      "❎": 3785,
      "넠": 3786,
      "ú": 3787,
      "촵": 3788,
      "줱": 3789,
      "펏": 3790,
      "㎃": 3791,
      "얒": 3792,
      "뀠": 3793,
      "뙇": 3794,
      "へ": 3795,
      "탹": 3796,
      "≥": 3797,
      "ß": 3798,
      "â": 3799,
      "‪": 3800,
      "훽": 3801,
      "ˈ": 3802,
      "Ⅴ": 3803,
      "벱": 3804,
      "섥": 3805,
      "┃": 3806,
      "숖": 3807,
      "♭": 3808,
      "🍾": 3809,
      "옿": 3810,
      "젗": 3811,
      "휭": 3812,
      "뇜": 3813,
      "홥": 3814,
      "꿱": 3815,
      "볻": 3816,
      "댤": 3817,
      "🦀": 3818,
      "퍅": 3819,
      "늡": 3820,
      "욷": 3821,
      "̈": 3822,
      "쑴": 3823,
      "섦": 3824,
      "먾": 3825,
      "솬": 3826,
      "쳘": 3827,
      "뭌": 3828,
      "퇄": 3829,
      "늨": 3830,
      "얷": 3831,
      "뉼": 3832,
      "£": 3833,
      "쌧": 3834,
      "씞": 3835,
      "💋": 3836,
      "짲": 3837,
      "뽝": 3838,
      "√": 3839,
      "궨": 3840,
      "🙊": 3841,
      "읅": 3842,
      "ゥ": 3843,
      "뢴": 3844,
      "🙈": 3845,
      "і": 3846,
      "텬": 3847,
      "틉": 3848,
      "눜": 3849,
      "쎜": 3850,
      "긎": 3851,
      "잚": 3852,
      "뭠": 3853,
      "뵀": 3854,
      "Δ": 3855,
      "냌": 3856,
      "묏": 3857,
      "ぎ": 3858,
      "Ⅵ": 3859,
      "셥": 3860,
      "ⓓ": 3861,
      "ī": 3862,
      "🇹": 3863,
      "읋": 3864,
      "👀": 3865,
      "🌜": 3866,
      "✳": 3867,
      "녠": 3868,
      "㏜": 3869,
      "쪅": 3870,
      "💦": 3871,
      "👟": 3872,
      "휸": 3873,
      "롴": 3874,
      "껸": 3875,
      "＊": 3876,
      "눤": 3877,
      "밦": 3878,
      "듼": 3879,
      "앏": 3880,
      "э": 3881,
      "팤": 3882,
      "똣": 3883,
      "춋": 3884,
      "δ": 3885,
      "퍙": 3886,
      "🗡": 3887,
      "🍆": 3888,
      "끅": 3889,
      "녤": 3890,
      "æ": 3891,
      "싰": 3892,
      "ō": 3893,
      "싲": 3894,
      "🇼": 3895,
      "뮹": 3896,
      "🌛": 3897,
      "＿": 3898,
      "쎗": 3899,
      "Σ": 3900,
      "옯": 3901,
      "쨀": 3902,
      "햊": 3903,
      "뮙": 3904,
      "겂": 3905,
      "🐁": 3906,
      "뷘": 3907,
      "ざ": 3908,
      "χ": 3909,
      "뺕": 3910,
      "ぱ": 3911,
      "숮": 3912,
      "싮": 3913,
      "É": 3914,
      "꽅": 3915,
      "엪": 3916,
      "썁": 3917,
      "묄": 3918,
      "듫": 3919,
      "붂": 3920,
      "햿": 3921,
      "꾾": 3922,
      "렣": 3923,
      "🌻": 3924,
      "⑮": 3925,
      "げ": 3926,
      "⑫": 3927,
      "뚕": 3928,
      "몐": 3929,
      "낔": 3930,
      "쨓": 3931,
      "ê": 3932,
      "퇬": 3933,
      "쩠": 3934,
      "웻": 3935,
      "폽": 3936,
      "깂": 3937,
      "슆": 3938,
      "곷": 3939,
      "훍": 3940,
      "🔖": 3941,
      "맍": 3942,
      "폇": 3943,
      "휄": 3944,
      "롼": 3945,
      "홤": 3946,
      "뒬": 3947,
      "궝": 3948,
      "젰": 3949,
      "싞": 3950,
      "둰": 3951,
      "긒": 3952,
      "댯": 3953,
      "돜": 3954,
      "썡": 3955,
      "죰": 3956,
      "👻": 3957,
      "뼤": 3958,
      "샄": 3959,
      "캌": 3960,
      "س": 3961,
      "쁀": 3962,
      "랳": 3963,
      "궛": 3964,
      "🐍": 3965,
      "둗": 3966,
      "ñ": 3967,
      "즞": 3968,
      "🌼": 3969,
      "🙅": 3970,
      "싳": 3971,
      "닾": 3972,
      "쵀": 3973,
      "옰": 3974,
      "쨘": 3975,
      "풰": 3976,
      "봔": 3977,
      "뻠": 3978,
      "꽊": 3979,
      "🔸": 3980,
      "不": 3981,
      "‬": 3982,
      "홓": 3983,
      "🎤": 3984,
      "푱": 3985,
      "휏": 3986,
      "쟜": 3987,
      "섲": 3988,
      "쁑": 3989,
      "쒔": 3990,
      "쒹": 3991,
      "쯫": 3992,
      "🐣": 3993,
      "밯": 3994,
      "삷": 3995,
      "⑪": 3996,
      "😒": 3997,
      "∀": 3998,
      "큥": 3999,
      "😞": 4000,
      "챃": 4001,
      "⋅": 4002,
      "◯": 4003,
      "ᄒ": 4004,
      "뼌": 4005,
      "윀": 4006,
      "🐎": 4007,
      "봌": 4008,
      "＠": 4009,
      "쾍": 4010,
      "🤑": 4011,
      "🇭": 4012,
      "👦": 4013,
      "₩": 4014,
      "굘": 4015,
      "≒": 4016,
      "쪌": 4017,
      "갮": 4018,
      "곺": 4019,
      "🙉": 4020,
      "곬": 4021,
      "쉡": 4022,
      "뚸": 4023,
      "햠": 4024,
      "😻": 4025,
      "먜": 4026,
      "렼": 4027,
      "짋": 4028,
      "섘": 4029,
      "ø": 4030,
      "쉌": 4031,
      "풂": 4032,
      "Я": 4033,
      "휨": 4034,
      "붏": 4035,
      "퍌": 4036,
      "젴": 4037,
      "큔": 4038,
      "켭": 4039,
      "½": 4040,
      "ه": 4041,
      "쌥": 4042,
      "둉": 4043,
      "ό": 4044,
      "뱸": 4045,
      "Л": 4046,
      "뒸": 4047,
      "☣": 4048,
      "맊": 4049,
      "퉛": 4050,
      "솼": 4051,
      "🎃": 4052,
      "ɛ": 4053,
      "흫": 4054,
      "죻": 4055,
      "귾": 4056,
      "쒴": 4057,
      "됑": 4058,
      "👞": 4059,
      "긐": 4060,
      "곹": 4061,
      "🤨": 4062,
      "꿑": 4063,
      "퉥": 4064,
      "😓": 4065,
      "젆": 4066,
      "싦": 4067,
      "🌩": 4068,
      "뭨": 4069,
      "듥": 4070,
      "š": 4071,
      "♧": 4072,
      "뷍": 4073,
      "땝": 4074,
      "얙": 4075,
      "쳅": 4076,
      "긂": 4077,
      "勞": 4078,
      "텻": 4079,
      "녛": 4080,
      "뻿": 4081,
      "У": 4082,
      "🙂": 4083,
      "퍀": 4084,
      "㎑": 4085,
      "ğ": 4086,
      "🦊": 4087,
      "헜": 4088,
      "봑": 4089,
      "긌": 4090,
      "꼳": 4091,
      "롲": 4092,
      "😳": 4093,
      "츔": 4094,
      "늟": 4095,
      "똫": 4096,
      "ぇ": 4097,
      "쩧": 4098,
      "쏀": 4099,
      "섐": 4100,
      "◦": 4101,
      "З": 4102,
      "읠": 4103,
      "챱": 4104,
      "껼": 4105,
      "좊": 4106,
      "ʃ": 4107,
      "ð": 4108,
      "쯍": 4109,
      "띰": 4110,
      "돴": 4111,
      "땈": 4112,
      "맻": 4113,
      "촴": 4114,
      "웈": 4115,
      "줃": 4116,
      "긧": 4117,
      "틁": 4118,
      "🙇": 4119,
      "쭛": 4120,
      "섻": 4121,
      "◁": 4122,
      "섮": 4123,
      "욋": 4124,
      "✂": 4125,
      "ë": 4126,
      "‎": 4127,
      "곌": 4128,
      "쵼": 4129,
      "☘": 4130,
      "낲": 4131,
      "⬛": 4132,
      "걈": 4133,
      "혠": 4134,
      "툐": 4135,
      "굷": 4136,
      "껨": 4137,
      "ぷ": 4138,
      "얃": 4139,
      "🍉": 4140,
      "͡": 4141,
      "붛": 4142,
      "🖐": 4143,
      "🍊": 4144,
      "졉": 4145,
      "🍓": 4146,
      "🌿": 4147,
      "훝": 4148,
      "🦴": 4149,
      "큉": 4150,
      "⬆": 4151,
      "뒨": 4152,
      "뢍": 4153,
      "뒺": 4154,
      "놘": 4155,
      "즬": 4156,
      "㎽": 4157,
      "먿": 4158,
      "잩": 4159,
      "ة": 4160,
      "ت": 4161,
      "💫": 4162,
      "뿝": 4163,
      "큠": 4164,
      "🐾": 4165,
      "놌": 4166,
      "쑝": 4167,
      "싡": 4168,
      "ぽ": 4169,
      "ŋ": 4170,
      "ร": 4171,
      "겎": 4172,
      "읉": 4173,
      "잀": 4174,
      "깹": 4175,
      "싁": 4176,
      "볔": 4177,
      "뚀": 4178,
      "쓩": 4179,
      "닸": 4180,
      "🧟": 4181,
      "젿": 4182,
      "Λ": 4183,
      "쫐": 4184,
      "줸": 4185,
      "쬔": 4186,
      "봍": 4187,
      "췐": 4188,
      "뉵": 4189,
      "몼": 4190,
      "밐": 4191,
      "멌": 4192,
      "줟": 4193,
      "🥊": 4194,
      "ぺ": 4195,
      "י": 4196,
      "핻": 4197,
      "쟞": 4198,
      "릳": 4199,
      "Ø": 4200,
      "ぜ": 4201,
      "읫": 4202,
      "넫": 4203,
      "왛": 4204,
      "🍭": 4205,
      "㉠": 4206,
      "ぬ": 4207,
      "쐨": 4208,
      "📛": 4209,
      "퐌": 4210,
      "뤗": 4211,
      "꾤": 4212,
      "겢": 4213,
      "쳫": 4214,
      "🦍": 4215,
      "🔺": 4216,
      "됸": 4217,
      "ヌ": 4218,
      "됙": 4219,
      "웛": 4220,
      "🐗": 4221,
      "옫": 4222,
      "쓥": 4223,
      "톺": 4224,
      "🐭": 4225,
      "Ⅹ": 4226,
      "２": 4227,
      "꿁": 4228,
      "삮": 4229,
      "빧": 4230,
      "좠": 4231,
      "욯": 4232,
      "귱": 4233,
      "햟": 4234,
      "✴": 4235,
      "ی": 4236,
      "뎔": 4237,
      "갵": 4238,
      "옸": 4239,
      "🤐": 4240,
      "뺒": 4241,
      "옪": 4242,
      "큄": 4243,
      "겯": 4244,
      "ł": 4245,
      "젅": 4246,
      "씦": 4247,
      "า": 4248,
      "렂": 4249,
      "넿": 4250,
      "럇": 4251,
      "🥇": 4252,
      "쐴": 4253,
      "꼅": 4254,
      "앸": 4255,
      "켝": 4256,
      "뵘": 4257,
      "〇": 4258,
      "샎": 4259,
      "렆": 4260,
      "😕": 4261,
      "쳡": 4262,
      "욪": 4263,
      "껰": 4264,
      "꺌": 4265,
      "싺": 4266,
      "덛": 4267,
      "ぞ": 4268,
      "🎀": 4269,
      "넗": 4270,
      "옃": 4271,
      "꼉": 4272,
      "έ": 4273,
      "둇": 4274,
      "샑": 4275,
      "풔": 4276,
      "빆": 4277,
      "댇": 4278,
      "짪": 4279,
      "샂": 4280,
      "ा": 4281,
      "씯": 4282,
      "📌": 4283,
      "똒": 4284,
      "튱": 4285,
      "돵": 4286,
      "넚": 4287,
      "엳": 4288,
      "룍": 4289,
      "뱓": 4290,
      "폠": 4291,
      "ꉂ": 4292,
      "龍": 4293,
      "끚": 4294,
      "쩄": 4295,
      "ㄻ": 4296,
      "뢈": 4297,
      "쳌": 4298,
      "붠": 4299,
      "べ": 4300,
      "🐱": 4301,
      "쐉": 4302,
      "띕": 4303,
      "냤": 4304,
      "·": 4305,
      "믇": 4306,
      "ã": 4307,
      "쒯": 4308,
      "💸": 4309,
      "ح": 4310,
      "뻉": 4311,
      "벍": 4312,
      "앀": 4313,
      "켘": 4314,
      "셯": 4315,
      "쬠": 4316,
      "춈": 4317,
      "갢": 4318,
      "꾁": 4319,
      "🐴": 4320,
      "쎴": 4321,
      "쎤": 4322,
      "㎟": 4323,
      "ع": 4324,
      "볭": 4325,
      "븁": 4326,
      "됗": 4327,
      "➖": 4328,
      "괙": 4329,
      "붖": 4330,
      "쎕": 4331,
      "넢": 4332,
      "쌱": 4333,
      "😴": 4334,
      "Ａ": 4335,
      "졵": 4336,
      "둟": 4337,
      "🐧": 4338,
      "퀜": 4339,
      "넺": 4340,
      "얂": 4341,
      "웝": 4342,
      "괵": 4343,
      "ύ": 4344,
      "🏃": 4345,
      "쾀": 4346,
      "좐": 4347,
      "줔": 4348,
      "릍": 4349,
      "🧢": 4350,
      "졈": 4351,
      "먁": 4352,
      "춉": 4353,
      "눍": 4354,
      "ē": 4355,
      "읒": 4356,
      "ɔ": 4357,
      "늼": 4358,
      "Ü": 4359,
      "ô": 4360,
      "뒛": 4361,
      "룟": 4362,
      "궘": 4363,
      "😪": 4364,
      "น": 4365,
      "뱜": 4366,
      "쨜": 4367,
      "🎌": 4368,
      "싥": 4369,
      "넑": 4370,
      "Α": 4371,
      "쥿": 4372,
      "≠": 4373,
      "щ": 4374,
      "🥺": 4375,
      "봫": 4376,
      "👇": 4377,
      "훵": 4378,
      "🚢": 4379,
      "꺙": 4380,
      "븜": 4381,
      "햋": 4382,
      "옂": 4383,
      "💃": 4384,
      "싕": 4385,
      "쭁": 4386,
      "🐺": 4387,
      "잛": 4388,
      "랲": 4389,
      "💯": 4390,
      "㉡": 4391,
      "ぴ": 4392,
      "": 4393,
      "🔮": 4394,
      "됒": 4395,
      "◐": 4396,
      "쪗": 4397,
      "＼": 4398,
      "💨": 4399,
      "핲": 4400,
      "›": 4401,
      "봗": 4402,
      "떧": 4403,
      "녆": 4404,
      "１": 4405,
      "죱": 4406,
      "뽚": 4407,
      "🤤": 4408,
      "앃": 4409,
      "삳": 4410,
      "뒝": 4411,
      "🔔": 4412,
      "컽": 4413,
      "헁": 4414,
      "쥠": 4415,
      "슺": 4416,
      "컼": 4417,
      "⬇": 4418,
      "훻": 4419,
      "ك": 4420,
      "‹": 4421,
      "Ö": 4422,
      "궍": 4423,
      "🐆": 4424,
      "엃": 4425,
      "ぃ": 4426,
      "ش": 4427,
      "싵": 4428,
      "💎": 4429,
      "곃": 4430,
      "🍏": 4431,
      "꿂": 4432,
      "뫙": 4433,
      "욺": 4434,
      "３": 4435,
      "풒": 4436,
      "Е": 4437,
      "졑": 4438,
      "춣": 4439,
      "뱆": 4440,
      "엍": 4441,
      "퀙": 4442,
      "룜": 4443,
      "¶": 4444,
      "ו": 4445,
      "🎆": 4446,
      "뭑": 4447,
      "뷀": 4448,
      "닪": 4449,
      "㏏": 4450,
      "Х": 4451,
      "🐸": 4452,
      "샸": 4453,
      "ф": 4454,
      "낃": 4455,
      "푈": 4456,
      "ū": 4457,
      "뺙": 4458,
      "ヲ": 4459,
      "핢": 4460,
      "돞": 4461,
      "갴": 4462,
      "섿": 4463,
      "»": 4464,
      "뵁": 4465,
      "섂": 4466,
      "씺": 4467,
      "낞": 4468,
      "롁": 4469,
      "섵": 4470,
      "Ф": 4471,
      "갷": 4472,
      "웑": 4473,
      "컁": 4474,
      "씃": 4475,
      "쇙": 4476,
      "낂": 4477,
      "먆": 4478,
      "🦇": 4479,
      "틐": 4480,
      "▒": 4481,
      "딬": 4482,
      "🎁": 4483,
      "팓": 4484,
      "ή": 4485,
      "잧": 4486,
      "🎼": 4487,
      "돰": 4488,
      "홯": 4489,
      "č": 4490,
      "뭊": 4491,
      "앛": 4492,
      "🍁": 4493,
      "퉵": 4494,
      "쩦": 4495,
      "렄": 4496,
      "먗": 4497,
      "곻": 4498,
      "븝": 4499,
      "칞": 4500,
      "©": 4501,
      "㎧": 4502,
      "닣": 4503,
      "🍖": 4504,
      "🐇": 4505,
      "뭰": 4506,
      "짅": 4507,
      "뤂": 4508,
      "븟": 4509,
      "혤": 4510,
      "걌": 4511,
      "🏮": 4512,
      "읐": 4513,
      "ق": 4514,
      "햛": 4515,
      "췽": 4516,
      "🍌": 4517,
      "닟": 4518,
      "🔑": 4519,
      "🦉": 4520,
      "쫃": 4521,
      "줳": 4522,
      "괼": 4523,
      "✖": 4524,
      "즣": 4525,
      "끛": 4526,
      "굯": 4527,
      "밠": 4528,
      "찯": 4529,
      "흝": 4530,
      "왹": 4531,
      "힜": 4532,
      "🤫": 4533,
      "φ": 4534,
      "쨎": 4535,
      "🤧": 4536,
      "ั": 4537,
      "ա": 4538,
      "쎾": 4539,
      "밮": 4540,
      "": 4541,
      "¥": 4542,
      "폅": 4543,
      "럲": 4544,
      "🎯": 4545,
      "🎄": 4546,
      "Π": 4547,
      "솈": 4548,
      "뿕": 4549,
      "뽱": 4550,
      "벴": 4551,
      "🐟": 4552,
      "퓡": 4553,
      "«": 4554,
      "롶": 4555,
      "🐛": 4556,
      "🦝": 4557,
      "ă": 4558,
      "ה": 4559,
      "흽": 4560,
      "쇟": 4561,
      "ა": 4562,
      "ﾞ": 4563,
      "💔": 4564,
      "뀄": 4565,
      "¼": 4566,
      "ɕ": 4567,
      "뮥": 4568,
      "봏": 4569,
      "쬽": 4570,
      "🐏": 4571,
      "늰": 4572,
      "꼮": 4573,
      "อ": 4574,
      "졐": 4575,
      "엦": 4576,
      "첯": 4577,
      "ㅤ": 4578,
      "쬘": 4579,
      "푄": 4580,
      "ف": 4581,
      "쥡": 4582,
      "쫴": 4583,
      "곂": 4584,
      "롣": 4585,
      "쐰": 4586,
      "🌎": 4587,
      "🍳": 4588,
      "릔": 4589,
      "탼": 4590,
      "🌀": 4591,
      "췁": 4592,
      "욿": 4593,
      "🤡": 4594,
      "턔": 4595,
      "ʊ": 4596,
      "뀬": 4597,
      "्": 4598,
      "⑬": 4599,
      "ʒ": 4600,
      "☹": 4601,
      "👆": 4602,
      "짏": 4603,
      "🍈": 4604,
      "폑": 4605,
      "뾱": 4606,
      "짫": 4607,
      "윱": 4608,
      "🌱": 4609,
      "🍃": 4610,
      "🦮": 4611,
      "ʰ": 4612,
      "껵": 4613,
      "늩": 4614,
      "텽": 4615,
      "긘": 4616,
      "퇸": 4617,
      "젘": 4618,
      "힁": 4619,
      "딀": 4620,
      "🆘": 4621,
      "ל": 4622,
      "괏": 4623,
      "깋": 4624,
      "⚫": 4625,
      "뻭": 4626,
      "땩": 4627,
      "졳": 4628,
      "숰": 4629,
      "்": 4630,
      "줕": 4631,
      "얠": 4632,
      "ค": 4633,
      "づ": 4634,
      "쭥": 4635,
      "짞": 4636,
      "ì": 4637,
      "웧": 4638,
      "댙": 4639,
      "걲": 4640,
      "멬": 4641,
      "땸": 4642,
      "ج": 4643,
      "벆": 4644,
      "빝": 4645,
      "캈": 4646,
      "🕺": 4647,
      "왚": 4648,
      "☑": 4649,
      "솀": 4650,
      "ก": 4651,
      "쌜": 4652,
      "넎": 4653,
      "ъ": 4654,
      "쨥": 4655,
      "갃": 4656,
      "얾": 4657,
      "🥵": 4658,
      "읮": 4659,
      "🌏": 4660,
      "씳": 4661,
      "뗍": 4662,
      "탙": 4663,
      "땽": 4664,
      "💲": 4665,
      "▮": 4666,
      "ぅ": 4667,
      "뱨": 4668,
      "쨕": 4669,
      "죔": 4670,
      "롐": 4671,
      "💤": 4672,
      "🦠": 4673,
      "ʌ": 4674,
      "뗳": 4675,
      "굮": 4676,
      "삲": 4677,
      "뉍": 4678,
      "㉯": 4679,
      "ᆡ": 4680,
      "Κ": 4681,
      "👁": 4682,
      "꾕": 4683,
      "쎙": 4684,
      "챴": 4685,
      "랂": 4686,
      "멵": 4687,
      "Э": 4688,
      "ᆯ": 4689,
      "캰": 4690,
      "닊": 4691,
      "뗠": 4692,
      "ר": 4693,
      "🍞": 4694,
      "쩃": 4695,
      "뜌": 4696,
      "솦": 4697,
      "츅": 4698,
      "🌞": 4699,
      "잕": 4700,
      "췅": 4701,
      "옝": 4702,
      "켙": 4703,
      "쎃": 4704,
      "숌": 4705,
      "🤛": 4706,
      "펵": 4707,
      "솁": 4708,
      "돱": 4709,
      "앆": 4710,
      "뫌": 4711,
      "㎦": 4712,
      "🤕": 4713,
      "쓤": 4714,
      "믠": 4715,
      "갣": 4716,
      "챽": 4717,
      "㉢": 4718,
      "ი": 4719,
      "↻": 4720,
      "췡": 4721,
      "핞": 4722,
      "웂": 4723,
      "쒰": 4724,
      "줩": 4725,
      "늅": 4726,
      "샞": 4727,
      "꿸": 4728,
      "뇟": 4729,
      "덞": 4730,
      "륻": 4731,
      "놬": 4732,
      "슽": 4733,
      "👼": 4734,
      "뀡": 4735,
      "İ": 4736,
      "쩢": 4737,
      "▸": 4738,
      "됻": 4739,
      "ɡ": 4740,
      "밓": 4741,
      "럤": 4742,
      "💊": 4743,
      "": 4744,
      "옽": 4745,
      "뺜": 4746,
      "🔉": 4747,
      "낗": 4748,
      "㎤": 4749,
      "◉": 4750,
      "릫": 4751,
      "홬": 4752,
      "읙": 4753,
      "🧠": 4754,
      "⛄": 4755,
      "̆": 4756,
      "픗": 4757,
      "🧐": 4758,
      "굑": 4759,
      "듴": 4760,
      "몴": 4761,
      "🌊": 4762,
      "롈": 4763,
      "💏": 4764,
      "َ": 4765,
      "욛": 4766,
      "앢": 4767,
      "🤓": 4768,
      "뢸": 4769,
      "ɑ": 4770,
      "å": 4771,
      "쟂": 4772,
      "💒": 4773,
      "떯": 4774,
      "💁": 4775,
      "냡": 4776,
      "챳": 4777,
      "쏳": 4778,
      "푝": 4779,
      "휫": 4780,
      "푤": 4781,
      "î": 4782,
      "듧": 4783,
      "ɐ": 4784,
      "뼁": 4785,
      "쯘": 4786,
      "쐽": 4787,
      "🔇": 4788,
      "Ч": 4789,
      "א": 4790,
      "ᄀ": 4791,
      "뭫": 4792,
      "뎆": 4793,
      "ม": 4794,
      "聯": 4795,
      "Ι": 4796,
      "뚣": 4797,
      "쮠": 4798,
      "㎈": 4799,
      "र": 4800,
      "✓": 4801,
      "솄": 4802,
      "먺": 4803,
      "큇": 4804,
      "핤": 4805,
      "녑": 4806,
      "졻": 4807,
      "🥁": 4808,
      "🤴": 4809,
      "끤": 4810,
      "텰": 4811,
      "캪": 4812,
      "툿": 4813,
      "쎡": 4814,
      "เ": 4815,
      "µ": 4816,
      "Ç": 4817,
      "¡": 4818,
      "쵤": 4819,
      "츱": 4820,
      "횅": 4821,
      "맽": 4822,
      "듳": 4823,
      "⚰": 4824,
      "🤟": 4825,
      "👲": 4826,
      "괁": 4827,
      "Ё": 4828,
      "━": 4829,
      "뼜": 4830,
      "죅": 4831,
      "👃": 4832,
      "흌": 4833,
      "🍼": 4834,
      "뺸": 4835,
      "졲": 4836,
      "쬑": 4837,
      "햭": 4838,
      "쪚": 4839,
      "맔": 4840,
      "놜": 4841,
      "😶": 4842,
      "힠": 4843,
      "밫": 4844,
      "🍺": 4845,
      "맼": 4846,
      "밗": 4847,
      "븰": 4848,
      "🎅": 4849,
      "⑭": 4850,
      "Æ": 4851,
      "엢": 4852,
      "✝": 4853,
      "Μ": 4854,
      "딝": 4855,
      "몱": 4856,
      "핦": 4857,
      "덨": 4858,
      "ө": 4859,
      "￥": 4860,
      "쾐": 4861,
      "🇱": 4862,
      "🚶": 4863,
      "몋": 4864,
      "👮": 4865,
      "뎟": 4866,
      "얭": 4867,
      "픅": 4868,
      "😟": 4869,
      "봡": 4870,
      "댛": 4871,
      "됮": 4872,
      "셬": 4873,
      "읨": 4874,
      "솃": 4875,
      "퓹": 4876,
      "넽": 4877,
      "앐": 4878,
      "멐": 4879,
      "궙": 4880,
      "ℹ": 4881,
      "읾": 4882,
      "줓": 4883,
      "ć": 4884,
      "뗔": 4885,
      "긓": 4886,
      "🌑": 4887,
      "ย": 4888,
      "쀄": 4889,
      "💄": 4890,
      "횝": 4891,
      "📍": 4892,
      "🎺": 4893,
      "섄": 4894,
      "ү": 4895,
      "้": 4896,
      "Ш": 4897,
      "삤": 4898,
      "햩": 4899,
      "핶": 4900,
      "Ц": 4901,
      "Ｃ": 4902,
      "Χ": 4903,
      "▩": 4904,
      "젲": 4905,
      "쐭": 4906,
      "픵": 4907,
      "럱": 4908,
      "🌚": 4909,
      "팛": 4910,
      "🍄": 4911,
      "슄": 4912,
      "أ": 4913,
      "웆": 4914,
      "됵": 4915,
      "쉉": 4916,
      "썀": 4917,
      "ﾟ": 4918,
      "🦆": 4919,
      "🤺": 4920,
      "껙": 4921,
      "㉮": 4922,
      "ᆢ": 4923,
      "ש": 4924,
      "턍": 4925,
      "🗝": 4926,
      "⚖": 4927,
      "̞": 4928,
      "⬅": 4929,
      "섷": 4930,
      "퓔": 4931,
      "🏴": 4932,
      "🍅": 4933,
      "샼": 4934,
      "뎊": 4935,
      "좦": 4936,
      "🤚": 4937,
      "🔲": 4938,
      "풜": 4939,
      "🙃": 4940,
      "쯨": 4941,
      "ɯ": 4942,
      "👾": 4943,
      "턀": 4944,
      "즂": 4945,
      "ᠠ": 4946,
      "ี": 4947,
      "왴": 4948,
      "칲": 4949,
      "눰": 4950,
      "🇧": 4951,
      "ώ": 4952,
      "얫": 4953,
      "팦": 4954,
      "빸": 4955,
      "캎": 4956,
      "": 4957,
      "่": 4958,
      "▴": 4959,
      "🍜": 4960,
      "👪": 4961,
      "쮹": 4962,
      "웋": 4963,
      "땰": 4964,
      "륌": 4965,
      "뺭": 4966,
      "랋": 4967,
      "덬": 4968,
      "돐": 4969,
      "Ｅ": 4970,
      "뱩": 4971,
      "꼻": 4972,
      "옾": 4973,
      "셒": 4974,
      "뚷": 4975,
      "🤜": 4976,
      "ù": 4977,
      "걵": 4978,
      "듪": 4979,
      "땬": 4980,
      "˙": 4981,
      "랕": 4982,
      "욨": 4983,
      "줰": 4984,
      "첝": 4985,
      "ز": 4986,
      "⑲": 4987,
      "Ε": 4988,
      "Ⅷ": 4989,
      "🤒": 4990,
      "톻": 4991,
      "껶": 4992,
      "렫": 4993,
      "섓": 4994,
      "ე": 4995,
      "►": 4996,
      "횻": 4997,
      "✈": 4998,
      "됔": 4999,
      "뗗": 5000,
      "븃": 5001,
      "꽄": 5002,
      "튑": 5003,
      "🕷": 5004,
      "딮": 5005,
      "숔": 5006,
      "ㅀ": 5007,
      "🎷": 5008,
      "🗽": 5009,
      "씪": 5010,
      "쥽": 5011,
      "벟": 5012,
      "🍇": 5013,
      "Ⅸ": 5014,
      "늴": 5015,
      "릊": 5016,
      "콌": 5017,
      "⛏": 5018,
      "펰": 5019,
      "🇬": 5020,
      "덷": 5021,
      "ב": 5022,
      "ﾉ": 5023,
      "갞": 5024,
      "қ": 5025,
      "̃": 5026,
      "ຈ": 5027,
      "ᄃ": 5028,
      "퀠": 5029,
      "🧴": 5030,
      "쟬": 5031,
      "젎": 5032,
      "🐉": 5033,
      "낢": 5034,
      "ว": 5035,
      "Ｒ": 5036,
      "ŏ": 5037,
      "씾": 5038,
      "ζ": 5039,
      "☔": 5040,
      "👶": 5041,
      "흨": 5042,
      "냦": 5043,
      "췰": 5044,
      "Ｔ": 5045,
      "ง": 5046,
      "禮": 5047,
      "쓒": 5048,
      "뱽": 5049,
      "끾": 5050,
      "빟": 5051,
      "놥": 5052,
      "㉣": 5053,
      "엗": 5054,
      "홛": 5055,
      "똟": 5056,
      "곅": 5057,
      "럅": 5058,
      "🗨": 5059,
      "🏆": 5060,
      "롳": 5061,
      "Ｉ": 5062,
      "댝": 5063,
      "횄": 5064,
      "뛧": 5065,
      "뻩": 5066,
      "퇀": 5067,
      "렺": 5068,
      "츕": 5069,
      "쀍": 5070,
      "뮝": 5071,
      "쉇": 5072,
      "쌴": 5073,
      "🏓": 5074,
      "삡": 5075,
      "ᄅ": 5076,
      "Γ": 5077,
      "蘭": 5078,
      "섳": 5079,
      "ぉ": 5080,
      "∇": 5081,
      "🤸": 5082,
      "빬": 5083,
      "췟": 5084,
      "붹": 5085,
      "⚽": 5086,
      "ï": 5087,
      "😯": 5088,
      "찷": 5089,
      "찓": 5090,
      "🍰": 5091,
      "ᆫ": 5092,
      "ž": 5093,
      "Ｏ": 5094,
      "웄": 5095,
      "🐝": 5096,
      "💵": 5097,
      "덋": 5098,
      "놎": 5099,
      "춯": 5100,
      "겓": 5101,
      "쮝": 5102,
      "🐄": 5103,
      "윸": 5104,
      "훳": 5105,
      "０": 5106,
      "몊": 5107,
      "녂": 5108,
      "퐄": 5109,
      "벜": 5110,
      "퇼": 5111,
      "₃": 5112,
      "ᄉ": 5113,
      "뜅": 5114,
      "귯": 5115,
      "긿": 5116,
      "췩": 5117,
      "잂": 5118,
      "ն": 5119,
      "ᄆ": 5120,
      "뗭": 5121,
      "쒭": 5122,
      "묾": 5123,
      "졨": 5124,
      "뇠": 5125,
      "췍": 5126,
      "튽": 5127,
      "롓": 5128,
      "🦲": 5129,
      "ิ": 5130,
      "㎣": 5131,
      "劉": 5132,
      "☭": 5133,
      "갅": 5134,
      "쟹": 5135,
      "닚": 5136,
      "̊": 5137,
      "쭀": 5138,
      "🔕": 5139,
      "쫠": 5140,
      "밇": 5141,
      "꼹": 5142,
      "똗": 5143,
      "뜡": 5144,
      "룁": 5145,
      "췼": 5146,
      "Á": 5147,
      "풓": 5148,
      "뚬": 5149,
      "눨": 5150,
      "얊": 5151,
      "４": 5152,
      "บ": 5153,
      "¹": 5154,
      "륍": 5155,
      "칑": 5156,
      "붊": 5157,
      "💑": 5158,
      "볹": 5159,
      "긜": 5160,
      "뀰": 5161,
      "︎": 5162,
      "칝": 5163,
      "슫": 5164,
      "릂": 5165,
      "읓": 5166,
      "콬": 5167,
      "겇": 5168,
      "셲": 5169,
      "틘": 5170,
      "엵": 5171,
      "똴": 5172,
      "랟": 5173,
      "Ｓ": 5174,
      "녅": 5175,
      "븩": 5176,
      "쭸": 5177,
      "섈": 5178,
      "ʻ": 5179,
      "ɹ": 5180,
      "₡": 5181,
      "뗬": 5182,
      "롔": 5183,
      "릃": 5184,
      "뎍": 5185,
      "엯": 5186,
      "🏈": 5187,
      "샗": 5188,
      "뗜": 5189,
      "붃": 5190,
      "굄": 5191,
      "좂": 5192,
      "궅": 5193,
      "텤": 5194,
      "먖": 5195,
      "싿": 5196,
      "🥀": 5197,
      "ط": 5198,
      "خ": 5199,
      "뭈": 5200,
      "뢱": 5201,
      "쟘": 5202,
      "잜": 5203,
      "Ｘ": 5204,
      "븉": 5205,
      "덍": 5206,
      "좽": 5207,
      "줯": 5208,
      "꾺": 5209,
      "뫕": 5210,
      "Τ": 5211,
      "Ú": 5212,
      "ด": 5213,
      "ぢ": 5214,
      "겱": 5215,
      "탘": 5216,
      "숳": 5217,
      "엋": 5218,
      "💌": 5219,
      "볠": 5220,
      "🥕": 5221,
      "ᄂ": 5222,
      "🧨": 5223,
      "넞": 5224,
      "뎋": 5225,
      "읈": 5226,
      "쇨": 5227,
      "🍗": 5228,
      "🎇": 5229,
      "Ｄ": 5230,
      "ท": 5231,
      "🏅": 5232,
      "섡": 5233,
      "낝": 5234,
      "밚": 5235,
      "갆": 5236,
      "Ж": 5237,
      "∥": 5238,
      "뵝": 5239,
      "앁": 5240,
      "귑": 5241,
      "쳈": 5242,
      "뮷": 5243,
      "댚": 5244,
      "🦋": 5245,
      "Ｋ": 5246,
      "놤": 5247,
      "죚": 5248,
      "🔻": 5249,
      "궷": 5250,
      "봙": 5251,
      "뫘": 5252,
      "핓": 5253,
      "🍚": 5254,
      "ʲ": 5255,
      "ý": 5256,
      "틅": 5257,
      "쉙": 5258,
      "챀": 5259,
      "͜": 5260,
      "칯": 5261,
      "겣": 5262,
      "뢐": 5263,
      "쁭": 5264,
      "괍": 5265,
      "딷": 5266,
      "듨": 5267,
      "ě": 5268,
      "혝": 5269,
      "듩": 5270,
      "🦁": 5271,
      "잢": 5272,
      "🌐": 5273,
      "쳰": 5274,
      "갏": 5275,
      "뱝": 5276,
      "슿": 5277,
      "잙": 5278,
      "붋": 5279,
      "횩": 5280,
      "깦": 5281,
      "닩": 5282,
      "릠": 5283,
      "👵": 5284,
      "얉": 5285,
      "👂": 5286,
      "냰": 5287,
      "ไ": 5288,
      "🎴": 5289,
      "꿃": 5290,
      "쉫": 5291,
      "💧": 5292,
      "킸": 5293,
      "긩": 5294,
      "５": 5295,
      "œ": 5296,
      "쬿": 5297,
      "뺼": 5298,
      "풑": 5299,
      "댭": 5300,
      "씮": 5301,
      "👫": 5302,
      "🦺": 5303,
      "쳦": 5304,
      "씉": 5305,
      "🔽": 5306,
      "븹": 5307,
      "싪": 5308,
      "놑": 5309,
      "뙛": 5310,
      "됼": 5311,
      "왬": 5312,
      "स": 5313,
      "מ": 5314,
      "त": 5315,
      "📺": 5316,
      "괬": 5317,
      "🎂": 5318,
      "낛": 5319,
      "🗿": 5320,
      "깓": 5321,
      "🔆": 5322,
      "뉭": 5323,
      "줐": 5324,
      "쉓": 5325,
      "🤥": 5326,
      "쭹": 5327,
      "쌸": 5328,
      "춌": 5329,
      "☄": 5330,
      "Θ": 5331,
      "": 5332,
      "̯": 5333,
      "្": 5334,
      "🐜": 5335,
      "댗": 5336,
      "욮": 5337,
      "썎": 5338,
      "갋": 5339,
      "🔶": 5340,
      "🇻": 5341,
      "됟": 5342,
      "🌕": 5343,
      "🙀": 5344,
      "🐃": 5345,
      "먐": 5346,
      "🤘": 5347,
      "눚": 5348,
      "ｰ": 5349,
      "😽": 5350,
      "벸": 5351,
      "홨": 5352,
      "붗": 5353,
      "샟": 5354,
      "훱": 5355,
      "삠": 5356,
      "큨": 5357,
      "뇔": 5358,
      "▫": 5359,
      "흗": 5360,
      "Ｌ": 5361,
      "ָ": 5362,
      "⚭": 5363,
      "펔": 5364,
      "쪔": 5365,
      "🎓": 5366,
      "킫": 5367,
      "벘": 5368,
      "돳": 5369,
      "벓": 5370,
      "됰": 5371,
      "㉰": 5372,
      "⑴": 5373,
      "ŭ": 5374,
      "꿐": 5375,
      "ㄶ": 5376,
      "랓": 5377,
      "됳": 5378,
      "퓬": 5379,
      "뇻": 5380,
      "쯜": 5381,
      "탇": 5382,
      "챼": 5383,
      "몡": 5384,
      "ㆁ": 5385,
      "क": 5386,
      "Ｐ": 5387,
      "⑵": 5388,
      "ᅀ": 5389,
      "쯰": 5390,
      "젉": 5391,
      "훚": 5392,
      "쀅": 5393,
      "녿": 5394,
      "쵹": 5395,
      "튁": 5396,
      "🥦": 5397,
      "ʔ": 5398,
      "냼": 5399,
      "❕": 5400,
      "끘": 5401,
      "💇": 5402,
      "읰": 5403,
      "🎸": 5404,
      "🌰": 5405,
      "뒵": 5406,
      "🧚": 5407,
      "눝": 5408,
      "û": 5409,
      "Ｂ": 5410,
      "⏪": 5411,
      "뇩": 5412,
      "ת": 5413,
      "ص": 5414,
      "░": 5415,
      "혖": 5416,
      "얆": 5417,
      "놂": 5418,
      "⏰": 5419,
      "ุ": 5420,
      "ล": 5421,
      "⑶": 5422,
      "뚥": 5423,
      "맒": 5424,
      "🎋": 5425,
      "힏": 5426,
      "둴": 5427,
      "먠": 5428,
      "💡": 5429,
      "뻈": 5430,
      "빯": 5431,
      "♩": 5432,
      "뙜": 5433,
      "먽": 5434,
      "🍬": 5435,
      "🍶": 5436,
      "묷": 5437,
      "첞": 5438,
      "앲": 5439,
      "蓮": 5440,
      "¿": 5441,
      "‰": 5442,
      "ң": 5443,
      "뼐": 5444,
      "겷": 5445,
      "뀟": 5446,
      "굡": 5447,
      "끜": 5448,
      "뵬": 5449,
      "뢉": 5450,
      "앺": 5451,
      "닁": 5452,
      "븬": 5453,
      "칟": 5454,
      "ㅿ": 5455,
      "ę": 5456,
      "벝": 5457,
      "끨": 5458,
      "킝": 5459,
      "🌍": 5460,
      "껗": 5461,
      "벎": 5462,
      "멷": 5463,
      "뵥": 5464,
      "Ş": 5465,
      "Ｍ": 5466,
      "ξ": 5467,
      "ո": 5468,
      "릌": 5469,
      "😦": 5470,
      "읂": 5471,
      "졏": 5472,
      "틜": 5473,
      "싐": 5474,
      "폥": 5475,
      "갊": 5476,
      "뽓": 5477,
      "홣": 5478,
      "ห": 5479,
      "ј": 5480,
      "Ю": 5481,
      "닲": 5482,
      "앧": 5483,
      "쐒": 5484,
      "싓": 5485,
      "🐻": 5486,
      "ś": 5487,
      "Β": 5488,
      "̄": 5489,
      "ʑ": 5490,
      "ᅳ": 5491,
      "令": 5492,
      "얬": 5493,
      "쫔": 5494,
      "멫": 5495,
      "힢": 5496,
      "볎": 5497,
      "뫀": 5498,
      "쑌": 5499,
      "🥖": 5500,
      "찠": 5501,
      "🔈": 5502,
      "ส": 5503,
      "┗": 5504,
      "‏": 5505,
      "ր": 5506,
      "⌀": 5507,
      "씷": 5508,
      "뿠": 5509,
      "왰": 5510,
      "쏸": 5511,
      "컈": 5512,
      "ㄨ": 5513,
      "췻": 5514,
      "솧": 5515,
      "☕": 5516,
      "훯": 5517,
      "헼": 5518,
      "⚔": 5519,
      "찱": 5520,
      "픞": 5521,
      "랅": 5522,
      "➰": 5523,
      "🎭": 5524,
      "¤": 5525,
      "न": 5526,
      "͟": 5527,
      "🐨": 5528,
      "잒": 5529,
      "빶": 5530,
      "럳": 5531,
      "뮜": 5532,
      "햰": 5533,
      "✍": 5534,
      "∧": 5535,
      "Š": 5536,
      "툻": 5537,
      "쎵": 5538,
      "낧": 5539,
      "껃": 5540,
      "캼": 5541,
      "냏": 5542,
      "🔷": 5543,
      "ी": 5544,
      "깇": 5545,
      "읩": 5546,
      "룅": 5547,
      "걺": 5548,
      "윶": 5549,
      "ᅡ": 5550,
      "￡": 5551,
      "핗": 5552,
      "뢋": 5553,
      "뀩": 5554,
      "귬": 5555,
      "뫁": 5556,
      "뤔": 5557,
      "썍": 5558,
      "똨": 5559,
      "팕": 5560,
      "뒁": 5561,
      "맫": 5562,
      "⚾": 5563,
      "쉠": 5564,
      "켷": 5565,
      "뒥": 5566,
      "쿽": 5567,
      "ى": 5568,
      "큲": 5569,
      "붅": 5570,
      "걋": 5571,
      "뙥": 5572,
      "긤": 5573,
      "웓": 5574,
      "퐛": 5575,
      "¨": 5576,
      "〮": 5577,
      "ｦ": 5578,
      "쭞": 5579,
      "렪": 5580,
      "촏": 5581,
      "얋": 5582,
      "긺": 5583,
      "꺔": 5584,
      "윜": 5585,
      "ต": 5586,
      "엫": 5587,
      "솢": 5588,
      "핪": 5589,
      "🩸": 5590,
      "벖": 5591,
      "🔼": 5592,
      "ㄼ": 5593,
      "ะ": 5594,
      "ო": 5595,
      "ń": 5596,
      "뻄": 5597,
      "\b": 5598,
      "６": 5599,
      "ד": 5600,
      "쉤": 5601,
      "빘": 5602,
      "띳": 5603,
      "춫": 5604,
      "꽇": 5605,
      "흼": 5606,
      "럻": 5607,
      "꺜": 5608,
      "댂": 5609,
      "힞": 5610,
      "쳨": 5611,
      "㈏": 5612,
      "რ": 5613,
      "ò": 5614,
      "฿": 5615,
      "걉": 5616,
      "🏭": 5617,
      "땧": 5618,
      "붚": 5619,
      "텈": 5620,
      "쵠": 5621,
      "웒": 5622,
      "냫": 5623,
      "🌳": 5624,
      "ʁ": 5625,
      "⇔": 5626,
      "∴": 5627,
      "띃": 5628,
      "껠": 5629,
      "훡": 5630,
      "냊": 5631,
      "쎽": 5632,
      "딯": 5633,
      "깧": 5634,
      "땤": 5635,
      "쇵": 5636,
      "🥑": 5637,
      "놕": 5638,
      "톹": 5639,
      "몉": 5640,
      "㎫": 5641,
      "꿕": 5642,
      "🌝": 5643,
      "홐": 5644,
      "뜱": 5645,
      "🥥": 5646,
      "ک": 5647,
      "｣": 5648,
      "म": 5649,
      "͞": 5650,
      "쏚": 5651,
      "팧": 5652,
      "롕": 5653,
      "뇀": 5654,
      "뇝": 5655,
      "늒": 5656,
      "쵱": 5657,
      "🍻": 5658,
      "㈎": 5659,
      "Ο": 5660,
      "ि": 5661,
      "Υ": 5662,
      "횰": 5663,
      "삾": 5664,
      "쟆": 5665,
      "꺆": 5666,
      "쳠": 5667,
      "닡": 5668,
      "끟": 5669,
      "똡": 5670,
      "탶": 5671,
      "륿": 5672,
      "뚧": 5673,
      "걜": 5674,
      "⬜": 5675,
      "ⓟ": 5676,
      "🇮": 5677,
      "좜": 5678,
      "엧": 5679,
      "쁄": 5680,
      "🇪": 5681,
      "🍘": 5682,
      "떦": 5683,
      "읪": 5684,
      "🐼": 5685,
      "큣": 5686,
      "ǎ": 5687,
      "": 5688,
      "ե": 5689,
      "쳧": 5690,
      "🇲": 5691,
      "짂": 5692,
      "춪": 5693,
      "뎝": 5694,
      "팢": 5695,
      "➕": 5696,
      "첟": 5697,
      "נ": 5698,
      "ช": 5699,
      "봟": 5700,
      "꽦": 5701,
      "듡": 5702,
      "샕": 5703,
      "휵": 5704,
      "👬": 5705,
      "ს": 5706,
      "þ": 5707,
      "▉": 5708,
      "ِ": 5709,
      "쉾": 5710,
      "쁙": 5711,
      "볂": 5712,
      "넏": 5713,
      "쩻": 5714,
      "혛": 5715,
      "늇": 5716,
      "큡": 5717,
      "ᠭ": 5718,
      "ᄋ": 5719,
      "ｳ": 5720,
      "｢": 5721,
      "륾": 5722,
      "##.": 5723,
      "##이": 5724,
      "##는": 5725,
      "##다": 5726,
      "##을": 5727,
      "##하": 5728,
      "##고": 5729,
      "##에": 5730,
      "##은": 5731,
      "##들": 5732,
      "##가": 5733,
      "##를": 5734,
      "##,": 5735,
      "##도": 5736,
      "##의": 5737,
      "##?": 5738,
      "##으로": 5739,
      "##한": 5740,
      "##지": 5741,
      "##에서": 5742,
      "##로": 5743,
      "##게": 5744,
      "##면": 5745,
      "##했": 5746,
      "##과": 5747,
      "##만": 5748,
      "##어": 5749,
      "##!": 5750,
      "##적": 5751,
      "##기": 5752,
      "##었": 5753,
      "##인": 5754,
      "##아": 5755,
      "##해": 5756,
      "##네": 5757,
      "##거": 5758,
      "##되": 5759,
      "##와": 5760,
      "##년": 5761,
      "##냐": 5762,
      "##나": 5763,
      "##할": 5764,
      "##일": 5765,
      "##)": 5766,
      "##겠": 5767,
      "##는데": 5768,
      "##(": 5769,
      "##지만": 5770,
      "##라고": 5771,
      "##라": 5772,
      "아니": 5773,
      "##며": 5774,
      "##'": 5775,
      "##까지": 5776,
      "##던": 5777,
      "사람": 5778,
      "ㅋㅋ": 5779,
      "국민": 5780,
      "##에게": 5781,
      "##자": 5782,
      "##~": 5783,
      "##”": 5784,
      "##한다": 5785,
      "##주": 5786,
      "##다고": 5787,
      "##니": 5788,
      "##았": 5789,
      "##야": 5790,
      "##것": 5791,
      "##면서": 5792,
      "##’": 5793,
      "##있": 5794,
      "##다는": 5795,
      "##\"": 5796,
      "##된": 5797,
      "##서": 5798,
      "##·": 5799,
      "우리": 5800,
      "##월": 5801,
      "##보": 5802,
      "나라": 5803,
      "##라는": 5804,
      "##부터": 5805,
      "##시": 5806,
      "한국": 5807,
      "생각": 5808,
      "일본": 5809,
      "##원": 5810,
      "##%": 5811,
      "##이나": 5812,
      "이런": 5813,
      "##으면": 5814,
      "##명": 5815,
      "##보다": 5816,
      "중국": 5817,
      "때문": 5818,
      "##대": 5819,
      "한다": 5820,
      "대통령": 5821,
      "##성": 5822,
      "##말": 5823,
      "##해서": 5824,
      "지금": 5825,
      "정부": 5826,
      "##화": 5827,
      "##개": 5828,
      "##여": 5829,
      "문제": 5830,
      "##~~": 5831,
      "진짜": 5832,
      "##때": 5833,
      "##당": 5834,
      "문재인": 5835,
      "##억": 5836,
      "##건": 5837,
      "##나라": 5838,
      "미국": 5839,
      "##ㅋㅋ": 5840,
      "##같": 5841,
      "10": 5842,
      "##해야": 5843,
      "북한": 5844,
      "##없": 5845,
      "위해": 5846,
      "만들": 5847,
      "대한": 5848,
      "##수": 5849,
      "##인데": 5850,
      "##-": 5851,
      "##였": 5852,
      "##된다": 5853,
      "##번": 5854,
      "##받": 5855,
      "그냥": 5856,
      "##습니다": 5857,
      "다른": 5858,
      "##씨": 5859,
      "##권": 5860,
      "조국": 5861,
      "##는지": 5862,
      "##처럼": 5863,
      "경우": 5864,
      "하나": 5865,
      "##어서": 5866,
      "##음": 5867,
      "##님": 5868,
      "##됐": 5869,
      "경제": 5870,
      "그렇": 5871,
      "인간": 5872,
      "##세요": 5873,
      "##한테": 5874,
      "이번": 5875,
      "##네요": 5876,
      "정치": 5877,
      "가능": 5878,
      "##라도": 5879,
      "이제": 5880,
      "대한민국": 5881,
      "##해라": 5882,
      "##안": 5883,
      "그리고": 5884,
      "사실": 5885,
      "모르": 5886,
      "함께": 5887,
      "검찰": 5888,
      "정도": 5889,
      "국가": 5890,
      "지역": 5891,
      "필요": 5892,
      "##2": 5893,
      "##1": 5894,
      "##는다": 5895,
      "시작": 5896,
      "모두": 5897,
      "##듯": 5898,
      "이후": 5899,
      "통해": 5900,
      "##다가": 5901,
      "##함": 5902,
      "지난": 5903,
      "이상": 5904,
      "많이": 5905,
      "정말": 5906,
      "너무": 5907,
      "나오": 5908,
      "민주당": 5909,
      "가장": 5910,
      "사용": 5911,
      "##위": 5912,
      "무슨": 5913,
      "##사람": 5914,
      "대표": 5915,
      "##합니다": 5916,
      "##입니다": 5917,
      "정권": 5918,
      "##차": 5919,
      "자기": 5920,
      "##죠": 5921,
      "기사": 5922,
      "##내": 5923,
      "서울": 5924,
      "다시": 5925,
      "상황": 5926,
      "##좀": 5927,
      "##도록": 5928,
      "##중": 5929,
      "정신": 5930,
      "세계": 5931,
      "##임": 5932,
      "##분": 5933,
      "##/": 5934,
      "##놈": 5935,
      "그러": 5936,
      "된다": 5937,
      "##3": 5938,
      "댓글": 5939,
      "기업": 5940,
      "아직": 5941,
      "20": 5942,
      "위한": 5943,
      "지원": 5944,
      "그런": 5945,
      "##줄": 5946,
      "모든": 5947,
      "밝혔": 5948,
      "##거나": 5949,
      "##될": 5950,
      "##시키": 5951,
      "##길": 5952,
      "##인지": 5953,
      "##전": 5954,
      "관련": 5955,
      "##인가": 5956,
      "##아서": 5957,
      "##든": 5958,
      "##엔": 5959,
      "##니까": 5960,
      "세금": 5961,
      "수준": 5962,
      "대해": 5963,
      "조사": 5964,
      "어디": 5965,
      "##으며": 5966,
      "시간": 5967,
      "저런": 5968,
      "의원": 5969,
      "##걸": 5970,
      "어떻": 5971,
      "잘못": 5972,
      "시장": 5973,
      "특히": 5974,
      "역시": 5975,
      "##사": 5976,
      "사회": 5977,
      "##어야": 5978,
      "경기": 5979,
      "자신": 5980,
      "##려고": 5981,
      "국내": 5982,
      "모습": 5983,
      "계속": 5984,
      "##으니": 5985,
      "현재": 5986,
      "여자": 5987,
      "이게": 5988,
      "##:": 5989,
      "30": 5990,
      "따라": 5991,
      "##질": 5992,
      "진행": 5993,
      "이렇": 5994,
      "아이": 5995,
      "##다면": 5996,
      "여기": 5997,
      "##대로": 5998,
      "사업": 5999,
      "##요": 6000,
      "가지": 6001,
      "##놓": 6002,
      "보이": 6003,
      "##재앙": 6004,
      "결국": 6005,
      "##간": 6006,
      "당신": 6007,
      "지난해": 6008,
      "제대로": 6009,
      "쓰레기": 6010,
      "바로": 6011,
      "100": 6012,
      "좌파": 6013,
      "##시간": 6014,
      "아닌": 6015,
      "##상": 6016,
      "##형": 6017,
      "##돼": 6018,
      "이유": 6019,
      "결과": 6020,
      "##먹": 6021,
      "##어요": 6022,
      "누가": 6023,
      "##치": 6024,
      "##5": 6025,
      "##해도": 6026,
      "소리": 6027,
      "수사": 6028,
      "다음": 6029,
      "후보": 6030,
      "##구나": 6031,
      "##천": 6032,
      "이미": 6033,
      "##라며": 6034,
      "제발": 6035,
      "빨갱이": 6036,
      "자유": 6037,
      "언론": 6038,
      "올해": 6039,
      "최근": 6040,
      "OOO": 6041,
      "##조": 6042,
      "12": 6043,
      "##마": 6044,
      "학생": 6045,
      "대구": 6046,
      "얼마나": 6047,
      "처음": 6048,
      "##4": 6049,
      "기자": 6050,
      "계획": 6051,
      "##않": 6052,
      "##한당": 6053,
      "그러나": 6054,
      "##시장": 6055,
      "##호": 6056,
      "누구": 6057,
      "운영": 6058,
      "##랑": 6059,
      "해야": 6060,
      "##달": 6061,
      "지지": 6062,
      "##란": 6063,
      "중요": 6064,
      "##빨": 6065,
      "박근혜": 6066,
      "##라면": 6067,
      "상대": 6068,
      "11": 6069,
      "##살": 6070,
      "경찰": 6071,
      "##아야": 6072,
      "당시": 6073,
      "##회": 6074,
      "이름": 6075,
      "청와대": 6076,
      "남자": 6077,
      "사건": 6078,
      "선거": 6079,
      "관계자": 6080,
      "기록": 6081,
      "교육": 6082,
      "##은데": 6083,
      "이날": 6084,
      "##짓": 6085,
      "##기업": 6086,
      "그럼": 6087,
      "피해": 6088,
      "또한": 6089,
      "마음": 6090,
      "##씩": 6091,
      "세상": 6092,
      "정책": 6093,
      "없이": 6094,
      "##데": 6095,
      "물론": 6096,
      "시민": 6097,
      "##긴": 6098,
      "가족": 6099,
      "##군": 6100,
      "공격": 6101,
      "개발": 6102,
      "어떤": 6103,
      "##…": 6104,
      "보여": 6105,
      "##정부": 6106,
      "다양": 6107,
      "같이": 6108,
      "주장": 6109,
      "설명": 6110,
      "##뿐": 6111,
      "##어도": 6112,
      "자리": 6113,
      "공개": 6114,
      "##오": 6115,
      "이해": 6116,
      "학교": 6117,
      "예정": 6118,
      "##더니": 6119,
      "신천지": 6120,
      "직접": 6121,
      "자체": 6122,
      "##신의": 6123,
      "선수": 6124,
      "이용": 6125,
      "##정도": 6126,
      "##째": 6127,
      "대상": 6128,
      "이야기": 6129,
      "기술": 6130,
      "역사": 6131,
      "여성": 6132,
      "어느": 6133,
      "그래서": 6134,
      "##한다고": 6135,
      "투자": 6136,
      "추가": 6137,
      "보수": 6138,
      "본인": 6139,
      "##세": 6140,
      "영화": 6141,
      "교수": 6142,
      "##정권": 6143,
      "##싶": 6144,
      "먼저": 6145,
      "##쓰": 6146,
      "##을까": 6147,
      "따르": 6148,
      "##나요": 6149,
      "50": 6150,
      "내용": 6151,
      "마스크": 6152,
      "##부": 6153,
      "방송": 6154,
      "평가": 6155,
      "##이랑": 6156,
      "이러": 6157,
      "##지역": 6158,
      "얘기": 6159,
      "국회": 6160,
      "##점": 6161,
      "##국민": 6162,
      "그만": 6163,
      "힘들": 6164,
      "수도": 6165,
      "삼성": 6166,
      "기준": 6167,
      "게임": 6168,
      "상태": 6169,
      "##에선": 6170,
      "능력": 6171,
      "일반": 6172,
      "아주": 6173,
      "장관": 6174,
      "결정": 6175,
      "추진": 6176,
      "근데": 6177,
      "개인": 6178,
      "기대": 6179,
      "반대": 6180,
      "관심": 6181,
      "##아니": 6182,
      "정상": 6183,
      "가격": 6184,
      "##마다": 6185,
      "회사": 6186,
      "발생": 6187,
      "발표": 6188,
      "##러": 6189,
      "##경제": 6190,
      "확인": 6191,
      "최고": 6192,
      "현실": 6193,
      "참여": 6194,
      "부모": 6195,
      "##등": 6196,
      "효과": 6197,
      "탄핵": 6198,
      "##곳": 6199,
      "책임": 6200,
      "보내": 6201,
      "##제": 6202,
      "대부분": 6203,
      "조작": 6204,
      "##밖에": 6205,
      "감독": 6206,
      "15": 6207,
      "등장": 6208,
      "인정": 6209,
      "##트": 6210,
      "일부": 6211,
      "활동": 6212,
      "##팀": 6213,
      "코로나": 6214,
      "해외": 6215,
      "##조사": 6216,
      "증가": 6217,
      "이것": 6218,
      "보인다": 6219,
      "##가지": 6220,
      "##는구나": 6221,
      "##기에": 6222,
      "전국": 6223,
      "미래": 6224,
      "준비": 6225,
      "이건": 6226,
      "포함": 6227,
      "머리": 6228,
      "언제": 6229,
      "해도": 6230,
      "사이": 6231,
      "동안": 6232,
      "그것": 6233,
      "##자의": 6234,
      "##6": 6235,
      "미친": 6236,
      "등의": 6237,
      "입장": 6238,
      "성공": 6239,
      "##실": 6240,
      "##구": 6241,
      "절대": 6242,
      "##사업": 6243,
      "##장": 6244,
      "대학": 6245,
      "해결": 6246,
      "전체": 6247,
      "사고": 6248,
      "여론": 6249,
      "##봐": 6250,
      "##한다는": 6251,
      "국회의원": 6252,
      "##국의": 6253,
      "##잖아": 6254,
      "##스럽": 6255,
      "총선": 6256,
      "##때문": 6257,
      "만든": 6258,
      "개돼지": 6259,
      "기본": 6260,
      "그게": 6261,
      "##률": 6262,
      "##넘": 6263,
      "##신": 6264,
      "##어라": 6265,
      "##배": 6266,
      "해라": 6267,
      "제품": 6268,
      "제공": 6269,
      "##법": 6270,
      "금융": 6271,
      "빨리": 6272,
      "얼굴": 6273,
      "요구": 6274,
      "마련": 6275,
      "의미": 6276,
      "전부": 6277,
      "##ㅋ": 6278,
      "##는가": 6279,
      "거의": 6280,
      "자식": 6281,
      "##좋": 6282,
      "요즘": 6283,
      "시즌": 6284,
      "##려는": 6285,
      "설치": 6286,
      "##계": 6287,
      "세월": 6288,
      "##센터": 6289,
      "국제": 6290,
      "민주": 6291,
      "노력": 6292,
      "부산": 6293,
      "ㅎㅎ": 6294,
      "##돈": 6295,
      "회장": 6296,
      "선택": 6297,
      "가운데": 6298,
      "과정": 6299,
      "강화": 6300,
      "주민": 6301,
      "나가": 6302,
      "선동": 6303,
      "##층": 6304,
      "걱정": 6305,
      "내년": 6306,
      "아무": 6307,
      "해당": 6308,
      "한심": 6309,
      "문화": 6310,
      "존재": 6311,
      "정보": 6312,
      "40": 6313,
      "하루": 6314,
      "ㅉㅉ": 6315,
      "##별": 6316,
      "##봐라": 6317,
      "##7": 6318,
      "여러": 6319,
      "예상": 6320,
      "행동": 6321,
      "공무원": 6322,
      "아닌가": 6323,
      "##급": 6324,
      "구속": 6325,
      "##새끼": 6326,
      "만큼": 6327,
      "##아라": 6328,
      "새로운": 6329,
      "그래도": 6330,
      "사랑": 6331,
      "더불": 6332,
      "등이": 6333,
      "방법": 6334,
      "연구": 6335,
      "들어가": 6336,
      "사진": 6337,
      "##8": 6338,
      "##비": 6339,
      "지적": 6340,
      "##버리": 6341,
      "위해서": 6342,
      "관리": 6343,
      "생산": 6344,
      "서비스": 6345,
      "인사": 6346,
      "아들": 6347,
      "##문": 6348,
      "정의": 6349,
      "그런데": 6350,
      "새끼": 6351,
      "최대": 6352,
      "##용": 6353,
      "##못": 6354,
      "검사": 6355,
      "가짜": 6356,
      "규모": 6357,
      "부분": 6358,
      "비교": 6359,
      "재앙": 6360,
      "비판": 6361,
      "##베": 6362,
      "만나": 6363,
      "도움": 6364,
      "##대통령": 6365,
      "조금": 6366,
      "##단체": 6367,
      "##대의": 6368,
      "행사": 6369,
      "##잡": 6370,
      "광주": 6371,
      "##구만": 6372,
      "##진": 6373,
      "조선": 6374,
      "##개월": 6375,
      "##회의": 6376,
      "다만": 6377,
      "나왔": 6378,
      "김정은": 6379,
      "유지": 6380,
      "##텐데": 6381,
      "거기": 6382,
      "##애": 6383,
      "##이상": 6384,
      "##집": 6385,
      "성장": 6386,
      "전쟁": 6387,
      "다니": 6388,
      "스스로": 6389,
      "이거": 6390,
      "##명의": 6391,
      "확대": 6392,
      "##생": 6393,
      "##날": 6394,
      "##>": 6395,
      "합니다": 6396,
      "##같이": 6397,
      "##소리": 6398,
      "매우": 6399,
      "다르": 6400,
      "##위원회": 6401,
      "판단": 6402,
      "해서": 6403,
      "출신": 6404,
      "##알": 6405,
      "활용": 6406,
      "권력": 6407,
      "판매": 6408,
      "##운동": 6409,
      "##대표": 6410,
      "직원": 6411,
      "##려": 6412,
      "한편": 6413,
      "18": 6414,
      "작품": 6415,
      "##장관": 6416,
      "##선": 6417,
      "사과": 6418,
      "토착": 6419,
      "##국가": 6420,
      "친구": 6421,
      "16": 6422,
      "적용": 6423,
      "마지막": 6424,
      "과거": 6425,
      "역할": 6426,
      "지방": 6427,
      "서로": 6428,
      "##셨": 6429,
      "##업체": 6430,
      "처벌": 6431,
      "똑같": 6432,
      "##타": 6433,
      "무엇": 6434,
      "전망": 6435,
      "이전": 6436,
      "##두": 6437,
      "##건데": 6438,
      "대신": 6439,
      "오히려": 6440,
      "그대로": 6441,
      "분석": 6442,
      "##아요": 6443,
      "강조": 6444,
      "프로그램": 6445,
      "기회": 6446,
      "무능": 6447,
      "도시": 6448,
      "##기관": 6449,
      "##하나": 6450,
      "##없이": 6451,
      "환경": 6452,
      "건강": 6453,
      "달리": 6454,
      "만드": 6455,
      "아파트": 6456,
      "..": 6457,
      "##으나": 6458,
      "거짓말": 6459,
      "완전": 6460,
      "##인의": 6461,
      "부족": 6462,
      "뉴스": 6463,
      "##9": 6464,
      "오늘": 6465,
      "적폐": 6466,
      "카드": 6467,
      "##고도": 6468,
      "무조건": 6469,
      "##율": 6470,
      "##이란": 6471,
      "적극": 6472,
      "구성": 6473,
      "승리": 6474,
      "비롯": 6475,
      "도대체": 6476,
      "의견": 6477,
      "13": 6478,
      "##개혁": 6479,
      "주변": 6480,
      "아베": 6481,
      "##봤": 6482,
      "##더라도": 6483,
      "그동안": 6484,
      "너희": 6485,
      "공부": 6486,
      "더욱": 6487,
      "비슷": 6488,
      "대해서": 6489,
      "지속": 6490,
      "전문": 6491,
      "오후": 6492,
      "진정": 6493,
      "##더라": 6494,
      "##지요": 6495,
      "##나가": 6496,
      "##깨": 6497,
      "올리": 6498,
      "##던데": 6499,
      "트럼프": 6500,
      "불법": 6501,
      "시대": 6502,
      "14": 6503,
      "##파": 6504,
      "25": 6505,
      "##꺼": 6506,
      "대비": 6507,
      "사기": 6508,
      "##뉴스": 6509,
      "##의원": 6510,
      "관계": 6511,
      "원래": 6512,
      "##사회": 6513,
      "##식": 6514,
      "부동산": 6515,
      "##만큼": 6516,
      "기존": 6517,
      "나이": 6518,
      "##교육": 6519,
      "##빠": 6520,
      "생활": 6521,
      "##건지": 6522,
      "인천": 6523,
      "어렵": 6524,
      "##노": 6525,
      "수출": 6526,
      "캐릭터": 6527,
      "아무리": 6528,
      "##시켜": 6529,
      "##0": 6530,
      "영향": 6531,
      "##으면서": 6532,
      "시키": 6533,
      "보도": 6534,
      "인기": 6535,
      "아님": 6536,
      "개혁": 6537,
      "제외": 6538,
      "개선": 6539,
      "거리": 6540,
      "배우": 6541,
      "응원": 6542,
      "위험": 6543,
      "##키": 6544,
      "집단": 6545,
      "##레기": 6546,
      "이젠": 6547,
      "고객": 6548,
      "의사": 6549,
      "##도시": 6550,
      "일자리": 6551,
      "가진": 6552,
      "주요": 6553,
      "##탓": 6554,
      "##려면": 6555,
      "나온": 6556,
      "그리": 6557,
      "##선거": 6558,
      "##학교": 6559,
      "중심": 6560,
      "대단": 6561,
      "반드시": 6562,
      "방식": 6563,
      "차지": 6564,
      "17": 6565,
      "한다는": 6566,
      "입국": 6567,
      "처리": 6568,
      "##끼": 6569,
      "##%)": 6570,
      "발전": 6571,
      "전혀": 6572,
      "문재": 6573,
      "##팔": 6574,
      "##더": 6575,
      "외교": 6576,
      "현장": 6577,
      "##가능": 6578,
      "결혼": 6579,
      "범죄": 6580,
      "현대": 6581,
      "차이": 6582,
      "산업": 6583,
      "달창": 6584,
      "우선": 6585,
      "경험": 6586,
      "##세계": 6587,
      "분야": 6588,
      "사장": 6589,
      "기간": 6590,
      "##기사": 6591,
      "부정": 6592,
      "##딱": 6593,
      "감사": 6594,
      "##=": 6595,
      "##누리": 6596,
      "##개발": 6597,
      "##문화": 6598,
      "나온다": 6599,
      "위치": 6600,
      "인해": 6601,
      "의혹": 6602,
      "어찌": 6603,
      "얼마": 6604,
      "##시설": 6605,
      "인물": 6606,
      "상승": 6607,
      "##문제": 6608,
      "19": 6609,
      "대응": 6610,
      "평화": 6611,
      "##꼴": 6612,
      "선정": 6613,
      "일단": 6614,
      "업체": 6615,
      "대선": 6616,
      "그걸": 6617,
      "##경기": 6618,
      "##후": 6619,
      "##그": 6620,
      "혼자": 6621,
      "나경원": 6622,
      "치료": 6623,
      "무시": 6624,
      "##달러": 6625,
      "지지율": 6626,
      "당연": 6627,
      "##장의": 6628,
      "공동": 6629,
      "60": 6630,
      "예산": 6631,
      "기억": 6632,
      "그래": 6633,
      "피해자": 6634,
      "투표": 6635,
      "확보": 6636,
      "바뀌": 6637,
      "평균": 6638,
      "##줬": 6639,
      "촛불": 6640,
      "당장": 6641,
      "유럽": 6642,
      "진보": 6643,
      "대체": 6644,
      "##새": 6645,
      "대책": 6646,
      "##와의": 6647,
      "비해": 6648,
      "##건가": 6649,
      "서민": 6650,
      "나쁜": 6651,
      "##정책": 6652,
      "표현": 6653,
      "우려": 6654,
      "지키": 6655,
      "##바": 6656,
      "조성": 6657,
      "##산업": 6658,
      "집중": 6659,
      "증거": 6660,
      "정당": 6661,
      "변화": 6662,
      "방문": 6663,
      "분위기": 6664,
      "##맞": 6665,
      "병원": 6666,
      "##나오": 6667,
      "열심히": 6668,
      "외국인": 6669,
      "##초": 6670,
      "제일": 6671,
      "##편": 6672,
      "진실": 6673,
      "21": 6674,
      "LG": 6675,
      "아버지": 6676,
      "운동": 6677,
      "##지원": 6678,
      "출시": 6679,
      "구조": 6680,
      "인생": 6681,
      "##왔": 6682,
      "돌아가": 6683,
      "##냐고": 6684,
      "논란": 6685,
      "시스템": 6686,
      "통합": 6687,
      "##쯤": 6688,
      "황교안": 6689,
      "인터넷": 6690,
      "##왜구": 6691,
      "야당": 6692,
      "난리": 6693,
      "실시": 6694,
      "##시민": 6695,
      "당하": 6696,
      "전문가": 6697,
      "영상": 6698,
      "부담": 6699,
      "##인간": 6700,
      "##한데": 6701,
      "##해야지": 6702,
      "경쟁": 6703,
      "##10": 6704,
      "독재": 6705,
      "각종": 6706,
      "열린": 6707,
      "24": 6708,
      "##단": 6709,
      "대회": 6710,
      "##꾼": 6711,
      "##많": 6712,
      "심각": 6713,
      "전략": 6714,
      "##준": 6715,
      "건설": 6716,
      "소속": 6717,
      "시절": 6718,
      "그때": 6719,
      "목표": 6720,
      "##프로": 6721,
      "대가리": 6722,
      "한다고": 6723,
      "군대": 6724,
      "인권": 6725,
      "##테": 6726,
      "각각": 6727,
      "저렇": 6728,
      "도입": 6729,
      "당연히": 6730,
      "기능": 6731,
      "공식": 6732,
      "##시대": 6733,
      "##ㅅ": 6734,
      "##끼리": 6735,
      "무기": 6736,
      "##남": 6737,
      "##로서": 6738,
      "공급": 6739,
      "##다니": 6740,
      "정치인": 6741,
      "강력": 6742,
      "실제로": 6743,
      "떨어지": 6744,
      "##고는": 6745,
      "##생각": 6746,
      "특별": 6747,
      "글로벌": 6748,
      "70": 6749,
      "##기술": 6750,
      "비리": 6751,
      "앞서": 6752,
      "##께": 6753,
      "자연": 6754,
      "조직": 6755,
      "동시": 6756,
      "##m": 6757,
      "실제": 6758,
      "##활동": 6759,
      "인상": 6760,
      "##속": 6761,
      "##+": 6762,
      "안전": 6763,
      "##잘": 6764,
      "공정": 6765,
      "환자": 6766,
      "브랜드": 6767,
      "##아도": 6768,
      "반면": 6769,
      "지랄": 6770,
      "##라니": 6771,
      "##관리": 6772,
      "위기": 6773,
      "여행": 6774,
      "논리": 6775,
      "핵심": 6776,
      "발언": 6777,
      "##한국": 6778,
      "##드": 6779,
      "##까": 6780,
      "사퇴": 6781,
      "##감": 6782,
      "업무": 6783,
      "유명": 6784,
      "##고의": 6785,
      "떠나": 6786,
      "신경": 6787,
      "##^^": 6788,
      "보호": 6789,
      "##됨": 6790,
      "사태": 6791,
      "가치": 6792,
      "##답": 6793,
      "##우리": 6794,
      "임명": 6795,
      "외국": 6796,
      "언급": 6797,
      "##로부터": 6798,
      "지난달": 6799,
      "자동차": 6800,
      "건물": 6801,
      "차량": 6802,
      "중국인": 6803,
      "노조": 6804,
      "항상": 6805,
      "##자는": 6806,
      "##대회": 6807,
      "참석": 6808,
      "목소리": 6809,
      "한국인": 6810,
      "대형": 6811,
      "상품": 6812,
      "##쪽": 6813,
      "아예": 6814,
      "네이버": 6815,
      "##리그": 6816,
      "고려": 6817,
      "오래": 6818,
      "##졌": 6819,
      "자랑": 6820,
      "##판": 6821,
      "##위원": 6822,
      "대화": 6823,
      "##정치": 6824,
      "##그룹": 6825,
      "내놓": 6826,
      "안정": 6827,
      "마찬가지": 6828,
      "##거리": 6829,
      "혐의": 6830,
      "행복": 6831,
      "주제": 6832,
      "감소": 6833,
      "죽이": 6834,
      "22": 6835,
      "우승": 6836,
      "##병원": 6837,
      "국정": 6838,
      "개최": 6839,
      "수입": 6840,
      "참고": 6841,
      "친일파": 6842,
      "단체": 6843,
      "희망": 6844,
      "##라서": 6845,
      "연기": 6846,
      "제작": 6847,
      "민주주의": 6848,
      "바람": 6849,
      "##수처": 6850,
      "##자고": 6851,
      "시기": 6852,
      "합의": 6853,
      "도와": 6854,
      "느낌": 6855,
      "최종": 6856,
      "##다며": 6857,
      "##조차": 6858,
      "나중": 6859,
      "훨씬": 6860,
      "##척": 6861,
      "또는": 6862,
      "거짓": 6863,
      "역대": 6864,
      "200": 6865,
      "진출": 6866,
      "##당하": 6867,
      "망하": 6868,
      "##보이": 6869,
      "##난": 6870,
      "오전": 6871,
      "의료": 6872,
      "SK": 6873,
      "독일": 6874,
      "공연": 6875,
      "불쌍": 6876,
      "##18": 6877,
      "엄마": 6878,
      "전화": 6879,
      "시행": 6880,
      "경기도": 6881,
      "더러운": 6882,
      "노인": 6883,
      "모델": 6884,
      "작가": 6885,
      "없애": 6886,
      "양심": 6887,
      "출연": 6888,
      "##났": 6889,
      "따른": 6890,
      "포기": 6891,
      "사망": 6892,
      "개소리": 6893,
      "23": 6894,
      "##조작": 6895,
      "경영": 6896,
      "영국": 6897,
      "##면서도": 6898,
      "프로": 6899,
      "미세먼지": 6900,
      "원인": 6901,
      "평생": 6902,
      "방안": 6903,
      "##관계": 6904,
      "노무현": 6905,
      "이미지": 6906,
      "교회": 6907,
      "##산": 6908,
      "바보": 6909,
      "청년": 6910,
      "##느냐": 6911,
      "##당의": 6912,
      "##%,": 6913,
      "##글": 6914,
      "수익": 6915,
      "##듯이": 6916,
      "의심": 6917,
      "롯데": 6918,
      "##바리": 6919,
      "실패": 6920,
      "##국": 6921,
      "친일": 6922,
      "##갔": 6923,
      "문죄": 6924,
      "드라마": 6925,
      "어려운": 6926,
      "궁금": 6927,
      "##던가": 6928,
      "##동안": 6929,
      "매출": 6930,
      "##은행": 6931,
      "어차피": 6932,
      "##봐야": 6933,
      "##왜": 6934,
      "영업": 6935,
      "여당": 6936,
      "지급": 6937,
      "주식": 6938,
      "##롭": 6939,
      "##미": 6940,
      "~~": 6941,
      "비용": 6942,
      "강제": 6943,
      "2015": 6944,
      "종교": 6945,
      "협력": 6946,
      "금지": 6947,
      "돼지": 6948,
      "디자인": 6949,
      "80": 6950,
      "##플": 6951,
      "판사": 6952,
      "통과": 6953,
      "##죽": 6954,
      "반응": 6955,
      "공산당": 6956,
      "높이": 6957,
      "노래": 6958,
      "목적": 6959,
      "소비자": 6960,
      "일정": 6961,
      "내부": 6962,
      "##박": 6963,
      "우한": 6964,
      "오르": 6965,
      "비난": 6966,
      "##30": 6967,
      "제도": 6968,
      "##남불": 6969,
      "##스": 6970,
      "중앙": 6971,
      "##방송": 6972,
      "##앞": 6973,
      "2014": 6974,
      "보였": 6975,
      "##정보": 6976,
      "불과": 6977,
      "미사일": 6978,
      "불리": 6979,
      "계약": 6980,
      "규제": 6981,
      "유시민": 6982,
      "반성": 6983,
      "자주": 6984,
      "신고": 6985,
      "##생활": 6986,
      "스킬": 6987,
      "영어": 6988,
      "바꾸": 6989,
      "##값": 6990,
      "##금지": 6991,
      "이명박": 6992,
      "발견": 6993,
      "2012": 6994,
      "##부의": 6995,
      "##통": 6996,
      "어쩌": 6997,
      "##주택": 6998,
      "그나마": 6999,
      "##회사": 7000,
      "공장": 7001,
      "##어야지": 7002,
      "반일": 7003,
      "나올": 7004,
      "##수준": 7005,
      "제시": 7006,
      "##깨문": 7007,
      "##케": 7008,
      "##으로서": 7009,
      "대출": 7010,
      "은행": 7011,
      "인구": 7012,
      "##리": 7013,
      "할머니": 7014,
      "순간": 7015,
      "자살": 7016,
      "최초": 7017,
      "뻔뻔": 7018,
      "2010": 7019,
      "괜찮": 7020,
      "시리즈": 7021,
      "26": 7022,
      "본격": 7023,
      "##벌": 7024,
      "속도": 7025,
      "사례": 7026,
      "부르": 7027,
      "월급": 7028,
      "혜택": 7029,
      "##능력": 7030,
      "##온": 7031,
      "선발": 7032,
      "자격": 7033,
      "##∼": 7034,
      "생기": 7035,
      "버리": 7036,
      "##민주당": 7037,
      "질문": 7038,
      "##ㄷ": 7039,
      "주인공": 7040,
      "보유": 7041,
      "성적": 7042,
      "27": 7043,
      "사형": 7044,
      "조치": 7045,
      "##20": 7046,
      "엄청": 7047,
      "웃기": 7048,
      "제기": 7049,
      "##수사": 7050,
      "##겟": 7051,
      "이벤트": 7052,
      "여전히": 7053,
      "광고": 7054,
      "논의": 7055,
      "고민": 7056,
      "공간": 7057,
      "러시아": 7058,
      "분양": 7059,
      "마치": 7060,
      "제한": 7061,
      "##발": 7062,
      "##세력": 7063,
      "하늘": 7064,
      "회복": 7065,
      "2016": 7066,
      "진심": 7067,
      "연결": 7068,
      "법무부": 7069,
      "느끼": 7070,
      "주목": 7071,
      "차라리": 7072,
      "##사의": 7073,
      "간첩": 7074,
      "성과": 7075,
      "울산": 7076,
      "불매": 7077,
      "28": 7078,
      "윤석열": 7079,
      "##성의": 7080,
      "고용": 7081,
      "신청": 7082,
      "유일": 7083,
      "총리": 7084,
      "방향": 7085,
      "행정": 7086,
      "##위원장": 7087,
      "나타났": 7088,
      "작업": 7089,
      "심판": 7090,
      "인식": 7091,
      "남성": 7092,
      "애초": 7093,
      "주택": 7094,
      "##승": 7095,
      "싸우": 7096,
      "##잖": 7097,
      "소득": 7098,
      "확실": 7099,
      "##사건": 7100,
      "구매": 7101,
      "무대": 7102,
      "반영": 7103,
      "고통": 7104,
      "지나": 7105,
      "##&": 7106,
      "##심": 7107,
      "요청": 7108,
      "수가": 7109,
      "##므로": 7110,
      "전했": 7111,
      "특징": 7112,
      "##본": 7113,
      "ㅠㅠ": 7114,
      "2013": 7115,
      "자꾸": 7116,
      "교사": 7117,
      "##소": 7118,
      "검토": 7119,
      "마라": 7120,
      "눈치": 7121,
      "변호사": 7122,
      "덕분": 7123,
      "참가": 7124,
      "##으니까": 7125,
      "작년": 7126,
      "기부": 7127,
      "남편": 7128,
      "매일": 7129,
      "중소기업": 7130,
      "강남": 7131,
      "본다": 7132,
      "완전히": 7133,
      "갑자기": 7134,
      "솔직히": 7135,
      "분노": 7136,
      "##..": 7137,
      "##투자": 7138,
      "##수의": 7139,
      "봐라": 7140,
      "조선일보": 7141,
      "한마디": 7142,
      "##충": 7143,
      "나머지": 7144,
      "확진": 7145,
      "자료": 7146,
      "이익": 7147,
      "그거": 7148,
      "TV": 7149,
      "음악": 7150,
      "나서": 7151,
      "##금융": 7152,
      "전투": 7153,
      "복지": 7154,
      "##해요": 7155,
      "보통": 7156,
      "판결": 7157,
      "##론": 7158,
      "서울대": 7159,
      "확정": 7160,
      "연속": 7161,
      "##겁니다": 7162,
      "해야지": 7163,
      "상식": 7164,
      "주로": 7165,
      "##만의": 7166,
      "예전": 7167,
      "##북": 7168,
      "시도": 7169,
      "구축": 7170,
      "감정": 7171,
      "지정": 7172,
      "2011": 7173,
      "상당히": 7174,
      "사전": 7175,
      "짱깨": 7176,
      "홍보": 7177,
      "바이러스": 7178,
      "경북": 7179,
      "거래": 7180,
      "##25": 7181,
      "##ㄹ": 7182,
      "집회": 7183,
      "파악": 7184,
      "장면": 7185,
      "경남": 7186,
      "택시": 7187,
      "장기": 7188,
      "##뭐": 7189,
      "특성": 7190,
      "에너지": 7191,
      "제목": 7192,
      "아래": 7193,
      "재산": 7194,
      "마을": 7195,
      "인터뷰": 7196,
      "300": 7197,
      "##자리": 7198,
      "##는데도": 7199,
      "범죄자": 7200,
      "##했으며": 7201,
      "온라인": 7202,
      "따로": 7203,
      "의해": 7204,
      "1000": 7205,
      "취업": 7206,
      "거부": 7207,
      "##너": 7208,
      "알려졌": 7209,
      "##여자": 7210,
      "올랐": 7211,
      "2018": 7212,
      "##대학": 7213,
      "소개": 7214,
      "살인": 7215,
      "종북": 7216,
      "최소": 7217,
      "관광": 7218,
      "일어나": 7219,
      "##가족": 7220,
      "##도의": 7221,
      "분명": 7222,
      "##던지": 7223,
      "##분기": 7224,
      "2000": 7225,
      "##래": 7226,
      "뭔가": 7227,
      "##와서": 7228,
      "설립": 7229,
      "##킹": 7230,
      "##입": 7231,
      "전라도": 7232,
      "##주의": 7233,
      "사상": 7234,
      "멍청": 7235,
      "##저": 7236,
      "##줘야": 7237,
      "##본의": 7238,
      "##참": 7239,
      "방침": 7240,
      "남북": 7241,
      "이유로": 7242,
      "가정": 7243,
      "##스러운": 7244,
      "##든지": 7245,
      "의지": 7246,
      "활성": 7247,
      "##한다면": 7248,
      "선생": 7249,
      "##공사": 7250,
      "공감": 7251,
      "대전": 7252,
      "집값": 7253,
      "500": 7254,
      "그저": 7255,
      "사회주의": 7256,
      "##기의": 7257,
      "이기": 7258,
      "시설": 7259,
      "기관": 7260,
      "2017": 7261,
      "##총장": 7262,
      "세력": 7263,
      "##부대": 7264,
      "버스": 7265,
      "추천": 7266,
      "초기": 7267,
      "투입": 7268,
      "아시아": 7269,
      "초반": 7270,
      "##루": 7271,
      "삼성전자": 7272,
      "모양": 7273,
      "소재": 7274,
      "고생": 7275,
      "특수": 7276,
      "여부": 7277,
      "시점": 7278,
      "신뢰": 7279,
      "##물": 7280,
      "힘든": 7281,
      "걸리": 7282,
      "##앙이": 7283,
      "##검사": 7284,
      "우수": 7285,
      "생겼": 7286,
      "중단": 7287,
      "부탁": 7288,
      "##갈": 7289,
      "90": 7290,
      "조선족": 7291,
      "변경": 7292,
      "총장": 7293,
      "알려": 7294,
      "최순": 7295,
      "##느라": 7296,
      "##국당": 7297,
      "빠르": 7298,
      "보상": 7299,
      "불안": 7300,
      "맨날": 7301,
      "통일": 7302,
      "프랑스": 7303,
      "봐도": 7304,
      "ㅡㅡ": 7305,
      "공사": 7306,
      "공공": 7307,
      "##본부": 7308,
      "플레이": 7309,
      "그건": 7310,
      "담당": 7311,
      "나와": 7312,
      "거지": 7313,
      "##시킨": 7314,
      "전달": 7315,
      "2008": 7316,
      "당선": 7317,
      "##ㆍ": 7318,
      "스마트폰": 7319,
      "실력": 7320,
      "2009": 7321,
      "지구": 7322,
      "박정희": 7323,
      "도로": 7324,
      "##준다": 7325,
      "기획": 7326,
      "##보험": 7327,
      "밝히": 7328,
      "시험": 7329,
      "29": 7330,
      "근무": 7331,
      "##세대": 7332,
      "##난다": 7333,
      "목숨": 7334,
      "중인": 7335,
      "폐지": 7336,
      "과연": 7337,
      "유리": 7338,
      "바라": 7339,
      "약속": 7340,
      "온갖": 7341,
      "심지어": 7342,
      "아냐": 7343,
      "무섭": 7344,
      "하락": 7345,
      "##㎡": 7346,
      "음식": 7347,
      "멤버": 7348,
      "행위": 7349,
      "개념": 7350,
      "이끌": 7351,
      "##종": 7352,
      "동네": 7353,
      "마시": 7354,
      "점점": 7355,
      "상당": 7356,
      "베트남": 7357,
      "마무리": 7358,
      "취급": 7359,
      "가슴": 7360,
      "싸움": 7361,
      "열리": 7362,
      "##상의": 7363,
      "##반": 7364,
      "키우": 7365,
      "줄이": 7366,
      "##져": 7367,
      "이걸": 7368,
      "평소": 7369,
      "정리": 7370,
      "어린": 7371,
      "##ㅂ": 7372,
      "이르": 7373,
      "이때": 7374,
      "##일본": 7375,
      "근거": 7376,
      "설정": 7377,
      "강한": 7378,
      "수요": 7379,
      "##고자": 7380,
      "올림픽": 7381,
      "감염": 7382,
      "내리": 7383,
      "##집단": 7384,
      "##ㅎㅎ": 7385,
      "불편": 7386,
      "대변인": 7387,
      "종합": 7388,
      "감옥": 7389,
      "차원": 7390,
      "##하고": 7391,
      "##차리": 7392,
      "따라서": 7393,
      "혁신": 7394,
      "##빵": 7395,
      "게다가": 7396,
      "전환": 7397,
      "##쇼": 7398,
      "##직": 7399,
      "조건": 7400,
      "가입": 7401,
      "일제": 7402,
      "##볼": 7403,
      "정확": 7404,
      "체력": 7405,
      "충분히": 7406,
      "기반": 7407,
      "##학년": 7408,
      "의도": 7409,
      "##아이": 7410,
      "##제도": 7411,
      "##니깐": 7412,
      "만약": 7413,
      "생명": 7414,
      "##사고": 7415,
      "개정": 7416,
      "##규모": 7417,
      "체험": 7418,
      "##가구": 7419,
      "광화문": 7420,
      "##짜리": 7421,
      "차별": 7422,
      "협상": 7423,
      "장애": 7424,
      "자녀": 7425,
      "규정": 7426,
      "어쩔": 7427,
      "저러": 7428,
      "자세": 7429,
      "민족": 7430,
      "비중": 7431,
      "##연금": 7432,
      "##불": 7433,
      "피부": 7434,
      "이동": 7435,
      "31": 7436,
      "갈등": 7437,
      "훈련": 7438,
      "까지": 7439,
      "유치": 7440,
      "##만들": 7441,
      "앞두": 7442,
      "매국노": 7443,
      "부터": 7444,
      "벌써": 7445,
      "##강": 7446,
      "##패": 7447,
      "전기": 7448,
      "##병": 7449,
      "##시켰": 7450,
      "##왕": 7451,
      "원전": 7452,
      "태극기": 7453,
      "나타나": 7454,
      "도전": 7455,
      "외치": 7456,
      "인근": 7457,
      "제출": 7458,
      "##중국": 7459,
      "이루": 7460,
      "정작": 7461,
      "자금": 7462,
      "##로운": 7463,
      "##조선": 7464,
      "##시의": 7465,
      "똑같이": 7466,
      "시위": 7467,
      "특정": 7468,
      "눈물": 7469,
      "아이템": 7470,
      "라고": 7471,
      "전통": 7472,
      "소비": 7473,
      "바란다": 7474,
      "##티": 7475,
      "##ㄱ": 7476,
      "그랬": 7477,
      "##에요": 7478,
      "기분": 7479,
      "##;;": 7480,
      "이상의": 7481,
      "##계획": 7482,
      "##선수": 7483,
      "직업": 7484,
      "과학": 7485,
      "##싫": 7486,
      "##과정": 7487,
      "주도": 7488,
      "##후보": 7489,
      "통한": 7490,
      "헛소리": 7491,
      "확산": 7492,
      "위원장": 7493,
      "무리": 7494,
      "늘어나": 7495,
      "매년": 7496,
      "주인": 7497,
      "불구": 7498,
      "제안": 7499,
      "중간": 7500,
      "답답": 7501,
      "##서의": 7502,
      "##막": 7503,
      "##죄": 7504,
      "##찍": 7505,
      "그룹": 7506,
      "##마저": 7507,
      "##기간": 7508,
      "어머니": 7509,
      "민간": 7510,
      "가만히": 7511,
      "생긴": 7512,
      "선물": 7513,
      "보고": 7514,
      "억울": 7515,
      "##복지": 7516,
      "이곳": 7517,
      "개판": 7518,
      "##채": 7519,
      "##표": 7520,
      "법원": 7521,
      "##습니까": 7522,
      "비율": 7523,
      "##는다고": 7524,
      "강하": 7525,
      "안타깝": 7526,
      "임금": 7527,
      "축구": 7528,
      "올려": 7529,
      "화이팅": 7530,
      "##방": 7531,
      "죽음": 7532,
      "재판": 7533,
      "출마": 7534,
      "한반도": 7535,
      "기초": 7536,
      "##됩니다": 7537,
      "절반": 7538,
      "보장": 7539,
      "##거든": 7540,
      "지지자": 7541,
      "미리": 7542,
      "채용": 7543,
      "스타": 7544,
      "공산주의": 7545,
      "독립": 7546,
      "달성": 7547,
      "주사": 7548,
      "군사": 7549,
      "단지": 7550,
      "이용해": 7551,
      "아닌데": 7552,
      "교체": 7553,
      "졸업": 7554,
      "실적": 7555,
      "수상": 7556,
      "그럴": 7557,
      "##으로부터": 7558,
      "위협": 7559,
      "##민주": 7560,
      "출전": 7561,
      "##협회": 7562,
      "계기": 7563,
      "문통": 7564,
      "##일까": 7565,
      "동물": 7566,
      "깨끗": 7567,
      "무식": 7568,
      "##평가": 7569,
      "##정의": 7570,
      "활약": 7571,
      "성격": 7572,
      "처럼": 7573,
      "자원": 7574,
      "아무것": 7575,
      "##세금": 7576,
      "청문회": 7577,
      "인수": 7578,
      "##석": 7579,
      "양아치": 7580,
      "##ㅡ": 7581,
      "연예인": 7582,
      "어린이": 7583,
      "경쟁력": 7584,
      "차례": 7585,
      "형태": 7586,
      "찬성": 7587,
      "##제품": 7588,
      "이놈": 7589,
      "제주": 7590,
      "정체": 7591,
      "##계의": 7592,
      "##15": 7593,
      "향후": 7594,
      "##천만": 7595,
      "위반": 7596,
      "회의": 7597,
      "##진짜": 7598,
      "조심": 7599,
      "##을지": 7600,
      "미치": 7601,
      "업계": 7602,
      "배치": 7603,
      "수치": 7604,
      "영웅": 7605,
      "공약": 7606,
      "2019": 7607,
      "##제의": 7608,
      "넘어가": 7609,
      "##.?": 7610,
      "##ㅠㅠ": 7611,
      "##환경": 7612,
      "엄청난": 7613,
      "##북한": 7614,
      "말씀": 7615,
      "단어": 7616,
      "단계": 7617,
      "재정": 7618,
      "우파": 7619,
      "조용히": 7620,
      "구체": 7621,
      "안철수": 7622,
      "촬영": 7623,
      "인한": 7624,
      "위안부": 7625,
      "악마": 7626,
      "##ㄴ": 7627,
      "무료": 7628,
      "##공원": 7629,
      "고소": 7630,
      "##ㅉㅉ": 7631,
      "신규": 7632,
      "파괴": 7633,
      "바랍니다": 7634,
      "전용": 7635,
      "지시": 7636,
      "구분": 7637,
      "의무": 7638,
      "##더만": 7639,
      "##간의": 7640,
      "##서비스": 7641,
      "##측": 7642,
      "##카드": 7643,
      "달러": 7644,
      "인도": 7645,
      "##무": 7646,
      "##단계": 7647,
      "##자금": 7648,
      "전력": 7649,
      "몰랐": 7650,
      "대처": 7651,
      "공천": 7652,
      "들어오": 7653,
      "현지": 7654,
      "##십": 7655,
      "##땐": 7656,
      "청소년": 7657,
      "소설": 7658,
      "실수": 7659,
      "동원": 7660,
      "##이익": 7661,
      "군인": 7662,
      "동일": 7663,
      "##악의": 7664,
      "##지금": 7665,
      "##D": 7666,
      "집권": 7667,
      "조정": 7668,
      "서울시": 7669,
      "특검": 7670,
      "손해": 7671,
      "전시": 7672,
      "별로": 7673,
      "##관": 7674,
      "현상": 7675,
      "유통": 7676,
      "혹은": 7677,
      "소환": 7678,
      "구입": 7679,
      "단순": 7680,
      "기소": 7681,
      "##동의": 7682,
      "##는다는": 7683,
      "수업": 7684,
      "헌법": 7685,
      "##봐도": 7686,
      "굳이": 7687,
      "##노조": 7688,
      "##아야지": 7689,
      "##체의": 7690,
      "이럴": 7691,
      "물건": 7692,
      "힘내": 7693,
      "장비": 7694,
      "##시즌": 7695,
      "부상": 7696,
      "전형": 7697,
      "측은": 7698,
      "살리": 7699,
      "대놓": 7700,
      "2007": 7701,
      "KBS": 7702,
      "##위해": 7703,
      "나섰": 7704,
      "입니다": 7705,
      "미군": 7706,
      "##합시다": 7707,
      "그림": 7708,
      "##단의": 7709,
      "부부": 7710,
      "아침": 7711,
      "연출": 7712,
      "목사": 7713,
      "##통합": 7714,
      "##이번": 7715,
      "챙기": 7716,
      "##언론": 7717,
      "##믿": 7718,
      "레벨": 7719,
      "바탕": 7720,
      "##리의": 7721,
      "거쳐": 7722,
      "뿌리": 7723,
      "##걸로": 7724,
      "알바": 7725,
      "봉사": 7726,
      "선언": 7727,
      "감성": 7728,
      "덧붙였": 7729,
      "한나라당": 7730,
      "관한": 7731,
      "인증": 7732,
      "##위기": 7733,
      "꼬라지": 7734,
      "##상황": 7735,
      "할인": 7736,
      "##공개": 7737,
      "집안": 7738,
      "충격": 7739,
      "해석": 7740,
      "노동": 7741,
      "전자": 7742,
      "취소": 7743,
      "수술": 7744,
      "올라가": 7745,
      "##대가리": 7746,
      "바다": 7747,
      "##지도": 7748,
      "확실히": 7749,
      "성능": 7750,
      "##19": 7751,
      "##지구": 7752,
      "##간다": 7753,
      "##낸": 7754,
      "##람": 7755,
      "원칙": 7756,
      "동의": 7757,
      "그녀": 7758,
      "이어지": 7759,
      "##~!!": 7760,
      "어려움": 7761,
      "##백": 7762,
      "협의": 7763,
      "느그": 7764,
      "##시킬": 7765,
      "##다는데": 7766,
      "##했으나": 7767,
      "##으려고": 7768,
      "전두환": 7769,
      "##버렸": 7770,
      "프로젝트": 7771,
      "청원": 7772,
      "##친": 7773,
      "빠른": 7774,
      "##교수": 7775,
      "##할까": 7776,
      "최저임금": 7777,
      "공산": 7778,
      "##삼": 7779,
      "##야지": 7780,
      "##진다": 7781,
      "소통": 7782,
      "장난": 7783,
      "부인": 7784,
      "##에겐": 7785,
      "막말": 7786,
      "홍콩": 7787,
      "가득": 7788,
      "더럽": 7789,
      "소식": 7790,
      "##의회": 7791,
      "신문": 7792,
      "임기": 7793,
      "국토": 7794,
      "명단": 7795,
      "유저": 7796,
      "##폭": 7797,
      "##대상": 7798,
      "추정": 7799,
      "##니다": 7800,
      "타격": 7801,
      "회원": 7802,
      "##ㅠ": 7803,
      "벌이": 7804,
      "사법": 7805,
      "배경": 7806,
      "##ㅈ": 7807,
      "반발": 7808,
      "정의당": 7809,
      "치매": 7810,
      "##돼지": 7811,
      "바른": 7812,
      "주문": 7813,
      "##처": 7814,
      "##가격": 7815,
      "##군의": 7816,
      "기다리": 7817,
      "뭔지": 7818,
      "인재": 7819,
      "##인가요": 7820,
      "##골": 7821,
      "여러분": 7822,
      "그만큼": 7823,
      "초등": 7824,
      "지도": 7825,
      "외부": 7826,
      "##회담": 7827,
      "전남": 7828,
      "##마을": 7829,
      "희생": 7830,
      "옹호": 7831,
      "허용": 7832,
      "매장": 7833,
      "비례": 7834,
      "##권의": 7835,
      "절차": 7836,
      "연계": 7837,
      "부자": 7838,
      "미쳤": 7839,
      "##',": 7840,
      "##게임": 7841,
      "직장": 7842,
      "연장": 7843,
      "대중": 7844,
      "##쓰레기": 7845,
      "##쳐먹": 7846,
      "떠들": 7847,
      "주가": 7848,
      "효율": 7849,
      "어떻게": 7850,
      "##포인트": 7851,
      "##또": 7852,
      "##전쟁": 7853,
      "스토리": 7854,
      "##보수": 7855,
      "펀드": 7856,
      "##업의": 7857,
      "밝혀": 7858,
      "보험": 7859,
      "##란다": 7860,
      "##OOO": 7861,
      "##회견": 7862,
      "##세기": 7863,
      "민심": 7864,
      "고발": 7865,
      "안보": 7866,
      "##이런": 7867,
      "장사": 7868,
      "수행": 7869,
      "##댓글": 7870,
      "##잇": 7871,
      "##피": 7872,
      "수많": 7873,
      "등록": 7874,
      "##박근혜": 7875,
      "지식": 7876,
      "새로": 7877,
      "##고서": 7878,
      "##마리": 7879,
      "##듣": 7880,
      "##퍼": 7881,
      "##시켜야": 7882,
      "유튜브": 7883,
      "##구조": 7884,
      "일상": 7885,
      "나눠": 7886,
      "세대": 7887,
      "홈페이지": 7888,
      "##A": 7889,
      "문서": 7890,
      "가수": 7891,
      "##조정": 7892,
      "반복": 7893,
      "전반": 7894,
      "스포츠": 7895,
      "노선": 7896,
      "##으로써": 7897,
      "##12": 7898,
      "##11": 7899,
      "방어": 7900,
      "철저히": 7901,
      "폭력": 7902,
      "노동자": 7903,
      "이리": 7904,
      "##발전": 7905,
      "돌리": 7906,
      "##’,": 7907,
      "##원의": 7908,
      "##미국": 7909,
      "##약": 7910,
      "대사": 7911,
      "가까운": 7912,
      "##공항": 7913,
      "죄다": 7914,
      "인력": 7915,
      "사라지": 7916,
      "##빨갱이": 7917,
      "따지": 7918,
      "늘리": 7919,
      "데뷔": 7920,
      "리그": 7921,
      "부문": 7922,
      "압박": 7923,
      "금리": 7924,
      "##아의": 7925,
      "와서": 7926,
      "빠져": 7927,
      "여름": 7928,
      "아마": 7929,
      "폭발": 7930,
      "결론": 7931,
      "##폐렴": 7932,
      "##줘": 7933,
      "기생충": 7934,
      "최소한": 7935,
      "##정상": 7936,
      "##처리": 7937,
      "##결과": 7938,
      "장소": 7939,
      "##등급": 7940,
      "심하": 7941,
      "확률": 7942,
      "MBC": 7943,
      "##정신": 7944,
      "##행위": 7945,
      "알리": 7946,
      "시청": 7947,
      "##단지": 7948,
      "##땅": 7949,
      "##가의": 7950,
      "주말": 7951,
      "완성": 7952,
      "미안": 7953,
      "##시스템": 7954,
      "##50": 7955,
      "유공자": 7956,
      "민노총": 7957,
      "육성": 7958,
      "나무": 7959,
      "##쳐": 7960,
      "바닥": 7961,
      "통제": 7962,
      "창출": 7963,
      "교통": 7964,
      "의식": 7965,
      "##크": 7966,
      "여야": 7967,
      "##공장": 7968,
      "시각": 7969,
      "시진핑": 7970,
      "모른다": 7971,
      "분열": 7972,
      "##슬": 7973,
      "##올림픽": 7974,
      "자국민": 7975,
      "짜증": 7976,
      "한계": 7977,
      "##지의": 7978,
      "##펀드": 7979,
      "빠지": 7980,
      "이상한": 7981,
      "운전": 7982,
      "감안": 7983,
      "##통신": 7984,
      "벗어나": 7985,
      "##열": 7986,
      "##보내": 7987,
      "저것": 7988,
      "해체": 7989,
      "공격력": 7990,
      "저기": 7991,
      "##대책": 7992,
      "마법": 7993,
      "##녀": 7994,
      "##공단": 7995,
      "축제": 7996,
      "저게": 7997,
      "다행": 7998,
      "아내": 7999,
      "##즈": 8000,
      "공유": 8001,
      "말아먹": 8002,
      "제거": 8003,
      "##망": 8004,
      "원숭이": 8005,
      "##그네": 8006,
      "정신병자": 8007,
      "협박": 8008,
      "비싸": 8009,
      "##덜": 8010,
      "나베": 8011,
      "##줘라": 8012,
      "##자식": 8013,
      "저거": 8014,
      "맞춰": 8015,
      "차단": 8016,
      "선진국": 8017,
      "##사실": 8018,
      "기여": 8019,
      "##정당": 8020,
      "옛날": 8021,
      "대기": 8022,
      "##선동": 8023,
      "인성": 8024,
      "호텔": 8025,
      "클럽": 8026,
      "그래야": 8027,
      "불만": 8028,
      "등등": 8029,
      "##레": 8030,
      "통계": 8031,
      "##상태": 8032,
      "##ㅡㅡ": 8033,
      "##%),": 8034,
      "부끄럽": 8035,
      "수원": 8036,
      "동료": 8037,
      "수십": 8038,
      "프레임": 8039,
      "모바일": 8040,
      "나누": 8041,
      "##과학": 8042,
      "##지방": 8043,
      "##뽑": 8044,
      "##업계": 8045,
      "지켜": 8046,
      "##감정": 8047,
      "자동": 8048,
      "구하": 8049,
      "숫자": 8050,
      "##투표": 8051,
      "##곤": 8052,
      "자영업": 8053,
      "##그러": 8054,
      "##’(": 8055,
      "지나가": 8056,
      "극우": 8057,
      "##폰": 8058,
      "##된다고": 8059,
      "모아": 8060,
      "점수": 8061,
      "##써": 8062,
      "장점": 8063,
      "비하": 8064,
      "에휴": 8065,
      "자빠졌": 8066,
      "최저": 8067,
      "라는": 8068,
      "개입": 8069,
      "충분": 8070,
      "##사태": 8071,
      "해명": 8072,
      "남의": 8073,
      "전년": 8074,
      "##집회": 8075,
      "즐기": 8076,
      "나쁘": 8077,
      "##라면서": 8078,
      "관광객": 8079,
      "체결": 8080,
      "이슈": 8081,
      "##좌파": 8082,
      "스타일": 8083,
      "##디": 8084,
      "매력": 8085,
      "대다수": 8086,
      "이어": 8087,
      "겨울": 8088,
      "봐야": 8089,
      "##햇": 8090,
      "##**": 8091,
      "이달": 8092,
      "##세상": 8093,
      "권리": 8094,
      "주의": 8095,
      "##비용": 8096,
      "진단": 8097,
      "입학": 8098,
      "유닛": 8099,
      "아가리": 8100,
      "##자동차": 8101,
      "대안": 8102,
      "현대차": 8103,
      "태도": 8104,
      "후반": 8105,
      "어른": 8106,
      "오른": 8107,
      "홍준표": 8108,
      "아닙니다": 8109,
      "공기": 8110,
      "올렸": 8111,
      "철수": 8112,
      "지도자": 8113,
      "합리": 8114,
      "소송": 8115,
      "대만": 8116,
      "이딴": 8117,
      "작성": 8118,
      "이래서": 8119,
      "##건설": 8120,
      "##께서": 8121,
      "금액": 8122,
      "에라이": 8123,
      "^^": 8124,
      "꾸준히": 8125,
      "쳐먹": 8126,
      "냄새": 8127,
      "##시켜라": 8128,
      "수석": 8129,
      "##뒤": 8130,
      "똑바로": 8131,
      "법안": 8132,
      "당했": 8133,
      "준다": 8134,
      "제정신": 8135,
      "##재": 8136,
      "상위": 8137,
      "##40": 8138,
      "무죄": 8139,
      "간다": 8140,
      "검증": 8141,
      "##거라": 8142,
      "줄어들": 8143,
      "조중동": 8144,
      "착각": 8145,
      "통화": 8146,
      "대우": 8147,
      "##보단": 8148,
      "몬스터": 8149,
      "##한지": 8150,
      "포인트": 8151,
      "세우": 8152,
      "구간": 8153,
      "데미지": 8154,
      "복귀": 8155,
      "터지": 8156,
      "극복": 8157,
      "지자체": 8158,
      "천안": 8159,
      "마케팅": 8160,
      "##대한민국": 8161,
      "##량": 8162,
      "됩니다": 8163,
      "거대": 8164,
      "##된다는": 8165,
      "##딸": 8166,
      "##코": 8167,
      "##군요": 8168,
      "설계": 8169,
      "호구": 8170,
      "##연구": 8171,
      "문정": 8172,
      "예방": 8173,
      "적당히": 8174,
      "만족": 8175,
      "아빠": 8176,
      "물가": 8177,
      "칭찬": 8178,
      "전면": 8179,
      "##국제": 8180,
      "##회장": 8181,
      "아프": 8182,
      "실질": 8183,
      "##대가": 8184,
      "투기": 8185,
      "원내대표": 8186,
      "격리": 8187,
      "상처": 8188,
      "##행사": 8189,
      "수정": 8190,
      "접근": 8191,
      "다소": 8192,
      "구라": 8193,
      "학원": 8194,
      "하네": 8195,
      "진중권": 8196,
      "##버": 8197,
      "##종의": 8198,
      "연간": 8199,
      "원장": 8200,
      "##비리": 8201,
      "어제": 8202,
      "##기자": 8203,
      "KT": 8204,
      "시원": 8205,
      "해소": 8206,
      "범위": 8207,
      "형성": 8208,
      "체제": 8209,
      "2006": 8210,
      "움직이": 8211,
      "발사": 8212,
      "향상": 8213,
      "나와서": 8214,
      "##ㅎ": 8215,
      "일반인": 8216,
      "##모르": 8217,
      "한테": 8218,
      "##다시": 8219,
      "어휴": 8220,
      "드러나": 8221,
      "가구": 8222,
      "플레이어": 8223,
      "##류": 8224,
      "##시절": 8225,
      "패배": 8226,
      "출발": 8227,
      "현금": 8228,
      "크기": 8229,
      "##구의": 8230,
      "창업": 8231,
      "하지만": 8232,
      "운행": 8233,
      "##재의": 8234,
      "혹시": 8235,
      "##을까요": 8236,
      "##선의": 8237,
      "역겹": 8238,
      "학부모": 8239,
      "##기준": 8240,
      "방역": 8241,
      "##연구원": 8242,
      "무역": 8243,
      "예비": 8244,
      "지하": 8245,
      "버티": 8246,
      "가까이": 8247,
      "35": 8248,
      "최대한": 8249,
      "된다는": 8250,
      "##]": 8251,
      "슈퍼": 8252,
      "가게": 8253,
      "부대": 8254,
      "망치": 8255,
      "마약": 8256,
      "시켜": 8257,
      "카메라": 8258,
      "편하": 8259,
      "실망": 8260,
      "스트레스": 8261,
      "단식": 8262,
      "검색": 8263,
      "사이트": 8264,
      "##필요": 8265,
      "##주년": 8266,
      "고맙": 8267,
      "##져야": 8268,
      "라인": 8269,
      "월드컵": 8270,
      "철저": 8271,
      "##전자": 8272,
      "부품": 8273,
      "청구": 8274,
      "직후": 8275,
      "##맨": 8276,
      "시급": 8277,
      "명의": 8278,
      "심사": 8279,
      "경고": 8280,
      "##밖": 8281,
      "##에다": 8282,
      "잠시": 8283,
      "적자": 8284,
      "그러니까": 8285,
      "##의식": 8286,
      "이하": 8287,
      "##여행": 8288,
      "다를": 8289,
      "##신문": 8290,
      "수능": 8291,
      "긍정": 8292,
      "뒤집": 8293,
      "동생": 8294,
      "짓거리": 8295,
      "반도체": 8296,
      "드루": 8297,
      "필수": 8298,
      "제재": 8299,
      "성인": 8300,
      "맞추": 8301,
      "##심의": 8302,
      "애플": 8303,
      "측면": 8304,
      "굉장히": 8305,
      "##카": 8306,
      "방사능": 8307,
      "##협력": 8308,
      "종료": 8309,
      "##빼": 8310,
      "아깝": 8311,
      "지내": 8312,
      "##가리": 8313,
      "##연합": 8314,
      "이사": 8315,
      "의문": 8316,
      "##스타": 8317,
      "지옥": 8318,
      "##성과": 8319,
      "연금": 8320,
      "압수수색": 8321,
      "진입": 8322,
      "에서": 8323,
      "##고요": 8324,
      "방해": 8325,
      "떨어진": 8326,
      "##히": 8327,
      "버전": 8328,
      "페미": 8329,
      "고향": 8330,
      "무려": 8331,
      "다리": 8332,
      "윤미향": 8333,
      "직전": 8334,
      "용서": 8335,
      "약간": 8336,
      "##순": 8337,
      "##눈": 8338,
      "논문": 8339,
      "최선": 8340,
      "물타기": 8341,
      "##000": 8342,
      "##분의": 8343,
      "데이터": 8344,
      "##당한": 8345,
      "혼란": 8346,
      "완벽": 8347,
      "가리": 8348,
      "보스": 8349,
      "연봉": 8350,
      "##넣": 8351,
      "##증권": 8352,
      "##`": 8353,
      "##나간": 8354,
      "##곡": 8355,
      "욕먹": 8356,
      "들어갔": 8357,
      "입주": 8358,
      "##당과": 8359,
      "고급": 8360,
      "##~!": 8361,
      "부여": 8362,
      "대학생": 8363,
      "오픈": 8364,
      "대북": 8365,
      "##서울": 8366,
      "##끝": 8367,
      "##성장": 8368,
      "##G": 8369,
      "때리": 8370,
      "아닌가요": 8371,
      "이란": 8372,
      "부활": 8373,
      "##㎞": 8374,
      "##재단": 8375,
      "겨우": 8376,
      "무서운": 8377,
      "콘텐츠": 8378,
      "주력": 8379,
      "재난": 8380,
      "인하": 8381,
      "##단다": 8382,
      "도덕": 8383,
      "문정부": 8384,
      "##인들": 8385,
      "##청": 8386,
      "##운영": 8387,
      "##조국": 8388,
      "##영화": 8389,
      "##버린": 8390,
      "패션": 8391,
      "실천": 8392,
      "투수": 8393,
      "발매": 8394,
      "사정": 8395,
      "재미": 8396,
      "우주": 8397,
      "##자체": 8398,
      "##대학교": 8399,
      "상징": 8400,
      "##예요": 8401,
      "단독": 8402,
      "동영상": 8403,
      "정확히": 8404,
      "근본": 8405,
      "##t": 8406,
      "##금리": 8407,
      "겁니다": 8408,
      "##겨": 8409,
      "토론": 8410,
      "조용": 8411,
      "##100": 8412,
      "##가량": 8413,
      "아웃": 8414,
      "기계": 8415,
      "예술": 8416,
      "##터": 8417,
      "노예": 8418,
      "상상": 8419,
      "##라운드": 8420,
      "유도": 8421,
      "##자마자": 8422,
      "식당": 8423,
      "실험": 8424,
      "명예": 8425,
      "관객": 8426,
      "##km": 8427,
      "컴퓨터": 8428,
      "훌륭": 8429,
      "스마트": 8430,
      "##구요": 8431,
      "##해졌": 8432,
      "표시": 8433,
      "##사항": 8434,
      "곳곳": 8435,
      "순위": 8436,
      "지능": 8437,
      "##개국": 8438,
      "##산의": 8439,
      "518": 8440,
      "저리": 8441,
      "##효과": 8442,
      "조합": 8443,
      "150": 8444,
      "##책임": 8445,
      "기독교": 8446,
      "임대": 8447,
      "갖추": 8448,
      "성폭행": 8449,
      "##자면": 8450,
      "반박": 8451,
      "##민족": 8452,
      "감싸": 8453,
      "촉구": 8454,
      "커피": 8455,
      "살려": 8456,
      "학습": 8457,
      "위선": 8458,
      "##할지": 8459,
      "지분": 8460,
      "피하": 8461,
      "##업": 8462,
      "도착": 8463,
      "##상품": 8464,
      "영입": 8465,
      "##순위": 8466,
      "뇌물": 8467,
      "독도": 8468,
      "문가": 8469,
      "존경": 8470,
      "##랄": 8471,
      "##사랑": 8472,
      "##지사": 8473,
      "##차례": 8474,
      "김대중": 8475,
      "미개": 8476,
      "확장": 8477,
      "##싸": 8478,
      "손혜원": 8479,
      "처먹": 8480,
      "가해자": 8481,
      "만한": 8482,
      "폭행": 8483,
      "획득": 8484,
      "제조": 8485,
      "만난": 8486,
      "이재명": 8487,
      "수준의": 8488,
      "증명": 8489,
      "##소득": 8490,
      "압도": 8491,
      "아동": 8492,
      "표정": 8493,
      "사이비": 8494,
      "##똥": 8495,
      "계산": 8496,
      "당한": 8497,
      "##아닌가": 8498,
      "일부러": 8499,
      "누군가": 8500,
      "이념": 8501,
      "##경찰": 8502,
      "##검찰": 8503,
      "##욕": 8504,
      "교활": 8505,
      "바꿔": 8506,
      "전원": 8507,
      "##처먹": 8508,
      "난다": 8509,
      "정은": 8510,
      "왜곡": 8511,
      "##이사": 8512,
      "##르": 8513,
      "##장애": 8514,
      "마세요": 8515,
      "##했었": 8516,
      "투명": 8517,
      "당당": 8518,
      "친환경": 8519,
      "탈출": 8520,
      "차리": 8521,
      "모집": 8522,
      "존나": 8523,
      "남한": 8524,
      "상관": 8525,
      "답변": 8526,
      "박사": 8527,
      "##입니까": 8528,
      "항목": 8529,
      "패턴": 8530,
      "펼치": 8531,
      "##식의": 8532,
      "개성": 8533,
      "자산": 8534,
      "참으로": 8535,
      "나름": 8536,
      "명령": 8537,
      "요소": 8538,
      "허위": 8539,
      "흐름": 8540,
      "지배": 8541,
      "대폭": 8542,
      "##잖아요": 8543,
      "##가치": 8544,
      "매각": 8545,
      "권한": 8546,
      "비밀": 8547,
      "##뇌": 8548,
      "갈수록": 8549,
      "##잔": 8550,
      "나갈": 8551,
      "##핵": 8552,
      "떨어졌": 8553,
      "장악": 8554,
      "부진": 8555,
      "지하철": 8556,
      "체계": 8557,
      "##밥": 8558,
      "꼴통": 8559,
      "충남": 8560,
      "운용": 8561,
      "##길래": 8562,
      "단속": 8563,
      "으로": 8564,
      "평등": 8565,
      "##동": 8566,
      "##자원": 8567,
      "자유민주주의": 8568,
      "##출신": 8569,
      "신용": 8570,
      "감방": 8571,
      "##친구": 8572,
      "##으라고": 8573,
      "과제": 8574,
      "##관련": 8575,
      "##식품": 8576,
      "지켜보": 8577,
      "악화": 8578,
      "인원": 8579,
      "저녁": 8580,
      "기념": 8581,
      "사드": 8582,
      "모여": 8583,
      "취지": 8584,
      "##안전": 8585,
      "국립": 8586,
      "기도": 8587,
      "조기": 8588,
      "##갑": 8589,
      "벌금": 8590,
      "수단": 8591,
      "시국": 8592,
      "제주도": 8593,
      "웃음": 8594,
      "##학생": 8595,
      "명이": 8596,
      "운운": 8597,
      "변명": 8598,
      "적어도": 8599,
      "##세트": 8600,
      "자극": 8601,
      "##색": 8602,
      "##대출": 8603,
      "데리": 8604,
      "협조": 8605,
      "##이제": 8606,
      "탄생": 8607,
      "성우": 8608,
      "내려": 8609,
      "##5000": 8610,
      "발동": 8611,
      "북괴": 8612,
      "##꼬": 8613,
      "이혼": 8614,
      "된다고": 8615,
      "##대강": 8616,
      "상반기": 8617,
      "걸쳐": 8618,
      "새벽": 8619,
      "##~~!!": 8620,
      "테러": 8621,
      "발악": 8622,
      "시선": 8623,
      "분리": 8624,
      "##땜": 8625,
      "##다른": 8626,
      "이웃": 8627,
      "어이없": 8628,
      "영역": 8629,
      "아무런": 8630,
      "완화": 8631,
      "주둥이": 8632,
      "신설": 8633,
      "##쉬": 8634,
      "명칭": 8635,
      "자율": 8636,
      "유사": 8637,
      "징역": 8638,
      "작전": 8639,
      "모드": 8640,
      "##교육청": 8641,
      "##독재": 8642,
      "##둘": 8643,
      "야구": 8644,
      "##의료": 8645,
      "2020": 8646,
      "요리": 8647,
      "##나온다": 8648,
      "##이의": 8649,
      "우린": 8650,
      "길이": 8651,
      "자존심": 8652,
      "오로지": 8653,
      "##으시": 8654,
      "예측": 8655,
      "채널": 8656,
      "주위": 8657,
      "##수석": 8658,
      "##로써": 8659,
      "점검": 8660,
      "##13": 8661,
      "앨범": 8662,
      "##력": 8663,
      "##닫": 8664,
      "##좌": 8665,
      "##브": 8666,
      "노출": 8667,
      "민생": 8668,
      "보냈": 8669,
      "뉴욕": 8670,
      "완료": 8671,
      "##하의": 8672,
      "##손": 8673,
      "파업": 8674,
      "실현": 8675,
      "카페": 8676,
      "##16": 8677,
      "가끔": 8678,
      "개편": 8679,
      "유학": 8680,
      "##베가": 8681,
      "##문재인": 8682,
      "유치원": 8683,
      "국방": 8684,
      "##앙": 8685,
      "하반기": 8686,
      "뛰어난": 8687,
      "애국": 8688,
      "조만간": 8689,
      "##다운": 8690,
      "##전화": 8691,
      "아줌마": 8692,
      "이탈리아": 8693,
      "독자": 8694,
      "소녀": 8695,
      "품질": 8696,
      "삭제": 8697,
      "남녀": 8698,
      "비상": 8699,
      "정식": 8700,
      "2005": 8701,
      "살아가": 8702,
      "##체제": 8703,
      "##관의": 8704,
      "##액": 8705,
      "축소": 8706,
      "##링": 8707,
      "지사": 8708,
      "생존": 8709,
      "저렴": 8710,
      "종목": 8711,
      "고위": 8712,
      "올린": 8713,
      "리더": 8714,
      "법률": 8715,
      "##민": 8716,
      "축하": 8717,
      "재벌": 8718,
      "##인사": 8719,
      "공항": 8720,
      "불러": 8721,
      "중도": 8722,
      "걸린": 8723,
      "무식한": 8724,
      "의한": 8725,
      "##시험": 8726,
      "400": 8727,
      "바라보": 8728,
      "이자": 8729,
      "물러나": 8730,
      "양성": 8731,
      "하나님": 8732,
      "##유": 8733,
      "##원전": 8734,
      "##ㅜㅜ": 8735,
      "##전략": 8736,
      "새롭": 8737,
      "은퇴": 8738,
      "움직임": 8739,
      "엔진": 8740,
      "변신": 8741,
      "##존의": 8742,
      "대답": 8743,
      "적절": 8744,
      "##으므로": 8745,
      "##환자": 8746,
      "동참": 8747,
      "보복": 8748,
      "배려": 8749,
      "무장": 8750,
      "의료진": 8751,
      "##지수": 8752,
      "용기": 8753,
      "##족": 8754,
      "수비": 8755,
      "자국": 8756,
      "담배": 8757,
      "돌파": 8758,
      "출범": 8759,
      "전세": 8760,
      "투자자": 8761,
      "한글": 8762,
      "괜히": 8763,
      "##계약": 8764,
      "달라": 8765,
      "법무": 8766,
      "##라인": 8767,
      "##따": 8768,
      "문자": 8769,
      "##ㅇ": 8770,
      "물량": 8771,
      "최악": 8772,
      "상담": 8773,
      "45": 8774,
      "우습": 8775,
      "##프": 8776,
      "선고": 8777,
      "##작": 8778,
      "추미애": 8779,
      "쉴드": 8780,
      "메인": 8781,
      "욕심": 8782,
      "사항": 8783,
      "던지": 8784,
      "한두": 8785,
      "따뜻": 8786,
      "##재산": 8787,
      "폐쇄": 8788,
      "순수": 8789,
      "향해": 8790,
      "가만": 8791,
      "수용": 8792,
      "호남": 8793,
      "##돌": 8794,
      "공짜": 8795,
      "근처": 8796,
      "취임": 8797,
      "기타": 8798,
      "화면": 8799,
      "너무나": 8800,
      "##구역": 8801,
      "##타령": 8802,
      "박원순": 8803,
      "시청자": 8804,
      "후손": 8805,
      "5000": 8806,
      "여유": 8807,
      "센터": 8808,
      "발굴": 8809,
      "##조치": 8810,
      "아프리카": 8811,
      "한정": 8812,
      "##구속": 8813,
      "이득": 8814,
      "##주일": 8815,
      "배출": 8816,
      "비싼": 8817,
      "평범": 8818,
      "선전": 8819,
      "블랙": 8820,
      "명분": 8821,
      "인정받": 8822,
      "한방": 8823,
      "나선": 8824,
      "미쳐": 8825,
      "로봇": 8826,
      "부패": 8827,
      "전개": 8828,
      "돌아오": 8829,
      "접수": 8830,
      "쩝쩝": 8831,
      "##닥": 8832,
      "진영": 8833,
      "가동": 8834,
      "사안": 8835,
      "위로": 8836,
      "강원도": 8837,
      "종류": 8838,
      "건립": 8839,
      "메르스": 8840,
      "휴가": 8841,
      "자한": 8842,
      "왜구": 8843,
      "포항": 8844,
      "골프": 8845,
      "갖춘": 8846,
      "모으": 8847,
      "##실장": 8848,
      "근로자": 8849,
      "증상": 8850,
      "##공산당": 8851,
      "##주민": 8852,
      "##아들": 8853,
      "자전거": 8854,
      "영원히": 8855,
      "##혜": 8856,
      "특혜": 8857,
      "차기": 8858,
      "##짓거리": 8859,
      "##민의": 8860,
      "동맹": 8861,
      "누굴": 8862,
      "트위터": 8863,
      "이용한": 8864,
      "견제": 8865,
      "두산": 8866,
      "##--": 8867,
      "타령": 8868,
      "전날": 8869,
      "분명히": 8870,
      "##중앙": 8871,
      "내일": 8872,
      "감시": 8873,
      "대결": 8874,
      "드러났": 8875,
      "핑계": 8876,
      "오지": 8877,
      "함부로": 8878,
      "찾아가": 8879,
      "빠진": 8880,
      "##본다": 8881,
      "##관광": 8882,
      "통신": 8883,
      "##엇": 8884,
      "##농단": 8885,
      "##법인": 8886,
      "##자료": 8887,
      "##외": 8888,
      "화려": 8889,
      "치열": 8890,
      "대통": 8891,
      "##닝": 8892,
      "보다": 8893,
      "##으론": 8894,
      "작용": 8895,
      "정은이": 8896,
      "단일": 8897,
      "비행기": 8898,
      "##맘": 8899,
      "사망자": 8900,
      "팔아먹": 8901,
      "파워": 8902,
      "거론": 8903,
      "##아파트": 8904,
      "만화": 8905,
      "소중": 8906,
      "##려나": 8907,
      "분류": 8908,
      "이래": 8909,
      "##줘서": 8910,
      "벌레": 8911,
      "##일의": 8912,
      "죄인": 8913,
      "32": 8914,
      "합시다": 8915,
      "정경": 8916,
      "난이도": 8917,
      "아름다운": 8918,
      "변하": 8919,
      "집행": 8920,
      "##체계": 8921,
      "##연구소": 8922,
      "밝힌": 8923,
      "##마세요": 8924,
      "##스런": 8925,
      "위하": 8926,
      "##공": 8927,
      "의장": 8928,
      "연습": 8929,
      "유출": 8930,
      "수록": 8931,
      "연말": 8932,
      "입시": 8933,
      "가졌": 8934,
      "##생명": 8935,
      "홍어": 8936,
      "모임": 8937,
      "국정원": 8938,
      "진상": 8939,
      "이낙연": 8940,
      "##TV": 8941,
      "##위의": 8942,
      "##먼": 8943,
      "##전이": 8944,
      "이민": 8945,
      "##주도": 8946,
      "언어": 8947,
      "발휘": 8948,
      "구역": 8949,
      "장착": 8950,
      "##시기": 8951,
      "정규": 8952,
      "지진": 8953,
      "이렇게": 8954,
      "장학금": 8955,
      "노리": 8956,
      "##딩": 8957,
      "수학": 8958,
      "상장": 8959,
      "##전문": 8960,
      "추종": 8961,
      "좌우": 8962,
      "##거래": 8963,
      "거두": 8964,
      "몰라": 8965,
      "##전의": 8966,
      "물리": 8967,
      "살아남": 8968,
      "##사진": 8969,
      "대박": 8970,
      "편의": 8971,
      "내렸": 8972,
      "일으키": 8973,
      "자유당": 8974,
      "ㅜㅜ": 8975,
      "##공간": 8976,
      "즐길": 8977,
      "똑똑": 8978,
      "몰라도": 8979,
      "##'(": 8980,
      "비핵화": 8981,
      "그린": 8982,
      "배달": 8983,
      "드러내": 8984,
      "승인": 8985,
      "강의": 8986,
      "역량": 8987,
      "##모양": 8988,
      "흔들": 8989,
      "##키로": 8990,
      "조언": 8991,
      "본질": 8992,
      "공포": 8993,
      "##예술": 8994,
      "큰일": 8995,
      "긴급": 8996,
      "산다": 8997,
      "혐오": 8998,
      "오랜": 8999,
      "##감독": 9000,
      "죽창": 9001,
      "##도로": 9002,
      "##24": 9003,
      "모조리": 9004,
      "##많이": 9005,
      "홈런": 9006,
      "수구": 9007,
      "세트": 9008,
      "국방부": 9009,
      "내내": 9010,
      "애니메이션": 9011,
      "단순히": 9012,
      "허가": 9013,
      "경상도": 9014,
      "누리": 9015,
      "겁나": 9016,
      "아닐": 9017,
      "수백": 9018,
      "##녀의": 9019,
      "##틀": 9020,
      "##혀": 9021,
      "##어의": 9022,
      "승부": 9023,
      "멀리": 9024,
      "##교회": 9025,
      "##역사": 9026,
      "법정": 9027,
      "어떠": 9028,
      "연락": 9029,
      "걸려": 9030,
      "다수": 9031,
      "##여성": 9032,
      "김일성": 9033,
      "소유": 9034,
      "##갱": 9035,
      "형사": 9036,
      "들어간": 9037,
      "##야구": 9038,
      "추구": 9039,
      "##평": 9040,
      "호주": 9041,
      "지겹": 9042,
      "당초": 9043,
      "##보호": 9044,
      "##건가요": 9045,
      "유니클로": 9046,
      "##으": 9047,
      "아닌지": 9048,
      "도쿄": 9049,
      "부리": 9050,
      "한화": 9051,
      "##식이": 9052,
      "고작": 9053,
      "고대": 9054,
      "항의": 9055,
      "##보도": 9056,
      "문제점": 9057,
      "이중": 9058,
      "철도": 9059,
      "##번호": 9060,
      "이내": 9061,
      "##청산": 9062,
      "등급": 9063,
      "도발": 9064,
      "운전자": 9065,
      "돌려": 9066,
      "책임지": 9067,
      "초대": 9068,
      "##여서": 9069,
      "숨기": 9070,
      "##21": 9071,
      "초청": 9072,
      "동기": 9073,
      "##마시": 9074,
      "창원": 9075,
      "보낸": 9076,
      "##한가": 9077,
      "다루": 9078,
      "주기": 9079,
      "감동": 9080,
      "대로": 9081,
      "##용의": 9082,
      "부지": 9083,
      "예수": 9084,
      "묘사": 9085,
      "##에게서": 9086,
      "박수": 9087,
      "거주": 9088,
      "##은가": 9089,
      "절대로": 9090,
      "충성": 9091,
      "넘기": 9092,
      "##당했": 9093,
      "또라이": 9094,
      "##경영": 9095,
      "##논리": 9096,
      "위원": 9097,
      "등과": 9098,
      "성향": 9099,
      "와중": 9100,
      "올라": 9101,
      "후회": 9102,
      "도둑": 9103,
      "방지": 9104,
      "오직": 9105,
      "IT": 9106,
      "아이돌": 9107,
      "합류": 9108,
      "고정": 9109,
      "##기구": 9110,
      "간단": 9111,
      "##대전": 9112,
      "포장": 9113,
      "젊은이": 9114,
      "화제": 9115,
      "무릎": 9116,
      "만만": 9117,
      "강요": 9118,
      "등도": 9119,
      "등신": 9120,
      "##들어가": 9121,
      "##‘": 9122,
      "##션": 9123,
      "도중": 9124,
      "눈길": 9125,
      "부회장": 9126,
      "지상": 9127,
      "경선": 9128,
      "##유공자": 9129,
      "심리": 9130,
      "##김": 9131,
      "##냈": 9132,
      "##14": 9133,
      "##구먼": 9134,
      "요인": 9135,
      "대가": 9136,
      "##다음": 9137,
      "경력": 9138,
      "##교활": 9139,
      "##량의": 9140,
      "벌어지": 9141,
      "##미래": 9142,
      "##아냐": 9143,
      "##축제": 9144,
      "남기": 9145,
      "##차별": 9146,
      "##책": 9147,
      "인류": 9148,
      "2004": 9149,
      "태어나": 9150,
      "공략": 9151,
      "식품": 9152,
      "##에너지": 9153,
      "##창": 9154,
      "혈세": 9155,
      "진화": 9156,
      "##양": 9157,
      "##분야": 9158,
      "개방": 9159,
      "쓰이": 9160,
      "교류": 9161,
      "##는군": 9162,
      "##그냥": 9163,
      "##x": 9164,
      "3000": 9165,
      "메시지": 9166,
      "폭탄": 9167,
      "쉬운": 9168,
      "##몽": 9169,
      "##당시": 9170,
      "추세": 9171,
      "##조직": 9172,
      "--": 9173,
      "인민": 9174,
      "##남자": 9175,
      "##후의": 9176,
      "이사장": 9177,
      "짐승": 9178,
      "##시티": 9179,
      "추경": 9180,
      "정기": 9181,
      "##현": 9182,
      "즉시": 9183,
      "판정": 9184,
      "##%(": 9185,
      "컬러": 9186,
      "대구시": 9187,
      "걸렸": 9188,
      "##머": 9189,
      "가난": 9190,
      "##이닝": 9191,
      "정비": 9192,
      "##지지": 9193,
      "손실": 9194,
      "이외": 9195,
      "날씨": 9196,
      "떨어져": 9197,
      "입지": 9198,
      "창피": 9199,
      "워낙": 9200,
      "꺼내": 9201,
      "임시": 9202,
      "여기저기": 9203,
      "원작": 9204,
      "고집": 9205,
      "애비": 9206,
      "아쉽": 9207,
      "봅니다": 9208,
      "존중": 9209,
      "##그렇": 9210,
      "가을": 9211,
      "찬양": 9212,
      "참조": 9213,
      "부실": 9214,
      "무너지": 9215,
      "뭔데": 9216,
      "손가락": 9217,
      "##잘못": 9218,
      "일대": 9219,
      "##못하": 9220,
      "##셔서": 9221,
      "SBS": 9222,
      "꼼수": 9223,
      "##동질": 9224,
      "##런": 9225,
      "##초의": 9226,
      "##으려": 9227,
      "이만희": 9228,
      "세뇌": 9229,
      "##ㅣ": 9230,
      "##쟁이": 9231,
      "##종합": 9232,
      "주지": 9233,
      "포스코": 9234,
      "##청원": 9235,
      "소름": 9236,
      "청소": 9237,
      "구단": 9238,
      "##공무원": 9239,
      "이해찬": 9240,
      "연구원": 9241,
      "외모": 9242,
      "통하": 9243,
      "##드립니다": 9244,
      "일방": 9245,
      "보고서": 9246,
      "##해진": 9247,
      "내지": 9248,
      "날리": 9249,
      "전북": 9250,
      "부당": 9251,
      "경계": 9252,
      "실행": 9253,
      "환영": 9254,
      "마누라": 9255,
      "부끄러운": 9256,
      "##태의": 9257,
      "호소": 9258,
      "상관없": 9259,
      "구글": 9260,
      "휴대폰": 9261,
      "##자치": 9262,
      "가깝": 9263,
      "한쪽": 9264,
      "##는구만": 9265,
      "33": 9266,
      "행태": 9267,
      "공중": 9268,
      "##찬": 9269,
      "합격": 9270,
      "명품": 9271,
      "##자유": 9272,
      "신상": 9273,
      "일당": 9274,
      "토지": 9275,
      "몇몇": 9276,
      "종자": 9277,
      "##품의": 9278,
      "##S": 9279,
      "주거": 9280,
      "붙이": 9281,
      "마감": 9282,
      "출산": 9283,
      "36": 9284,
      "요금": 9285,
      "화력": 9286,
      "프리미엄": 9287,
      "독재자": 9288,
      "강간": 9289,
      "연관": 9290,
      "집계": 9291,
      "듯하": 9292,
      "형식": 9293,
      "태양광": 9294,
      "돌아다니": 9295,
      "고유": 9296,
      "##교사": 9297,
      "##준비": 9298,
      "교육부": 9299,
      "선배": 9300,
      "무게": 9301,
      "##이하": 9302,
      "추락": 9303,
      "양반": 9304,
      "아닐까": 9305,
      "##거의": 9306,
      "만났": 9307,
      "##17": 9308,
      "유엔": 9309,
      "거듭": 9310,
      "후원": 9311,
      "발목": 9312,
      "아이폰": 9313,
      "투쟁": 9314,
      "##버스": 9315,
      "보안": 9316,
      "아이디어": 9317,
      "##으세요": 9318,
      "##;": 9319,
      "사죄": 9320,
      "##봄": 9321,
      "사법부": 9322,
      "듯한": 9323,
      "##든가": 9324,
      "느껴": 9325,
      "틀린": 9326,
      "##문의": 9327,
      "수장": 9328,
      "식사": 9329,
      "##역": 9330,
      "생태": 9331,
      "##모": 9332,
      "##´": 9333,
      "응답": 9334,
      "##합의": 9335,
      "챙겨": 9336,
      "##겄": 9337,
      "넘치": 9338,
      "##내용": 9339,
      "##건강": 9340,
      "작중": 9341,
      "##팬": 9342,
      "위조": 9343,
      "##꼴통": 9344,
      "##존": 9345,
      "##놈의": 9346,
      "##치의": 9347,
      "국적": 9348,
      "인지": 9349,
      "심한": 9350,
      "고개": 9351,
      "방치": 9352,
      "수립": 9353,
      "전교조": 9354,
      "선보이": 9355,
      "한미": 9356,
      "이틀": 9357,
      "##풀": 9358,
      "시체": 9359,
      "하여간": 9360,
      "타이틀": 9361,
      "##치료": 9362,
      "실체": 9363,
      "어울리": 9364,
      "안다": 9365,
      "##마트": 9366,
      "에피소드": 9367,
      "##체": 9368,
      "개봉": 9369,
      "양산": 9370,
      "신기": 9371,
      "임원": 9372,
      "느낄": 9373,
      "착용": 9374,
      "부과": 9375,
      "보여준다": 9376,
      "취하": 9377,
      "이성": 9378,
      "선두": 9379,
      "엄청나": 9380,
      "폐기": 9381,
      "##금": 9382,
      "취재": 9383,
      "##현장": 9384,
      "##안타": 9385,
      "오염": 9386,
      "알려진": 9387,
      "SNS": 9388,
      "##매": 9389,
      "##이유": 9390,
      "##파의": 9391,
      "언제나": 9392,
      "이명": 9393,
      "계열": 9394,
      "지인": 9395,
      "##돼야": 9396,
      "나아가": 9397,
      "편성": 9398,
      "##해봐라": 9399,
      "##차려라": 9400,
      "##대구": 9401,
      "180": 9402,
      "발행": 9403,
      "##방법": 9404,
      "##학원": 9405,
      "받아들이": 9406,
      "외면": 9407,
      "김경수": 9408,
      "탈락": 9409,
      "속이": 9410,
      "경주": 9411,
      "본사": 9412,
      "때려": 9413,
      "항공": 9414,
      "월드": 9415,
      "##평화": 9416,
      "가시": 9417,
      "한때": 9418,
      "초딩": 9419,
      "##속도": 9420,
      "음성": 9421,
      "##죄인": 9422,
      "특유": 9423,
      "청산": 9424,
      "위대": 9425,
      "수수료": 9426,
      "단점": 9427,
      "##예산": 9428,
      "할까": 9429,
      "개학": 9430,
      "##피해": 9431,
      "대거": 9432,
      "##500": 9433,
      "고등학교": 9434,
      "뒤지": 9435,
      "2002": 9436,
      "영혼": 9437,
      "맞서": 9438,
      "당해": 9439,
      "사유": 9440,
      "서류": 9441,
      "신체": 9442,
      "자제": 9443,
      "금메달": 9444,
      "미디어": 9445,
      "부채": 9446,
      "파티": 9447,
      "일본인": 9448,
      "건축": 9449,
      "갤럭시": 9450,
      "##의의": 9451,
      "##모의": 9452,
      "배제": 9453,
      "재료": 9454,
      "##물의": 9455,
      "첨단": 9456,
      "선임": 9457,
      "결코": 9458,
      "##방식": 9459,
      "##아님": 9460,
      "먼지": 9461,
      "##일보": 9462,
      "내수": 9463,
      "디지털": 9464,
      "간부": 9465,
      "든다": 9466,
      "화재": 9467,
      "자발": 9468,
      "##털": 9469,
      "##은지": 9470,
      "멀쩡": 9471,
      "진술": 9472,
      "알려져": 9473,
      "붕괴": 9474,
      "어르신": 9475,
      "한다면": 9476,
      "##시청": 9477,
      "한참": 9478,
      "##나와": 9479,
      "##22": 9480,
      "아군": 9481,
      "이재용": 9482,
      "별도": 9483,
      "실업": 9484,
      "화가": 9485,
      "오바마": 9486,
      "##댓": 9487,
      "##전하": 9488,
      "매국": 9489,
      "##칠": 9490,
      "착한": 9491,
      "##드리": 9492,
      "드디어": 9493,
      "선호": 9494,
      "##시가": 9495,
      "##외교": 9496,
      "언론사": 9497,
      "지나치": 9498,
      "대변": 9499,
      "시나리오": 9500,
      "열받": 9501,
      "##청장": 9502,
      "##기록": 9503,
      "PC": 9504,
      "##홀": 9505,
      "메이저": 9506,
      "행보": 9507,
      "열린다": 9508,
      "계열사": 9509,
      "퇴출": 9510,
      "##60": 9511,
      "선출": 9512,
      "##훈련": 9513,
      "모이": 9514,
      "체포": 9515,
      "파견": 9516,
      "##레벨": 9517,
      "CJ": 9518,
      "패치": 9519,
      "##자산": 9520,
      "설득": 9521,
      "업그레이드": 9522,
      "소문": 9523,
      "인프라": 9524,
      "##부모": 9525,
      "보급": 9526,
      "대하": 9527,
      "복잡": 9528,
      "징계": 9529,
      "망해": 9530,
      "##푼": 9531,
      "고교": 9532,
      "##소속": 9533,
      "##임금": 9534,
      "52": 9535,
      "사무실": 9536,
      "##범죄": 9537,
      "99": 9538,
      "##물질": 9539,
      "교육감": 9540,
      "##부리": 9541,
      "일관": 9542,
      "감당": 9543,
      "속성": 9544,
      "꼬리": 9545,
      "개정안": 9546,
      "##머리": 9547,
      "백화점": 9548,
      "##현재": 9549,
      "##판사": 9550,
      "맞춤": 9551,
      "120": 9552,
      "급증": 9553,
      "스페인": 9554,
      "##혁명": 9555,
      "약점": 9556,
      "예배": 9557,
      "##학과": 9558,
      "부장": 9559,
      "예약": 9560,
      "해양": 9561,
      "통해서": 9562,
      "즉각": 9563,
      "아울러": 9564,
      "근로": 9565,
      "##검": 9566,
      "##새기": 9567,
      "대법원": 9568,
      "맛있": 9569,
      "##동네": 9570,
      "캠페인": 9571,
      "그야말로": 9572,
      "##팩": 9573,
      "경향": 9574,
      "##노총": 9575,
      "##으러": 9576,
      "추방": 9577,
      "당사자": 9578,
      "##혁신": 9579,
      "취약": 9580,
      "성추행": 9581,
      "##체험": 9582,
      "전공": 9583,
      "법인": 9584,
      "용인": 9585,
      "아니야": 9586,
      "##져라": 9587,
      "복수": 9588,
      "자본": 9589,
      "국산": 9590,
      "충돌": 9591,
      "치르": 9592,
      "##얘기": 9593,
      "##23": 9594,
      "##해양": 9595,
      "##다면서": 9596,
      "##코리아": 9597,
      "##칸": 9598,
      "석유": 9599,
      "망할": 9600,
      "복합": 9601,
      "늘어난": 9602,
      "비정규직": 9603,
      "아기": 9604,
      "회담": 9605,
      "매입": 9606,
      "누르": 9607,
      "##장이": 9608,
      "오해": 9609,
      "재미있": 9610,
      "한데": 9611,
      "득점": 9612,
      "##처벌": 9613,
      "65": 9614,
      "##맛": 9615,
      "해제": 9616,
      "채권": 9617,
      "설마": 9618,
      "브라질": 9619,
      "김치": 9620,
      "위주": 9621,
      "주관": 9622,
      "##폼": 9623,
      "과도": 9624,
      "##떼": 9625,
      "결승": 9626,
      "개통": 9627,
      "##국장": 9628,
      "##는다면": 9629,
      "여담": 9630,
      "##작업": 9631,
      "탑재": 9632,
      "업데이트": 9633,
      "모자라": 9634,
      "선박": 9635,
      "##뇬": 9636,
      "정답": 9637,
      "##당국": 9638,
      "지껄이": 9639,
      "날려": 9640,
      "기름": 9641,
      "훼손": 9642,
      "##행동": 9643,
      "오만": 9644,
      "동남아": 9645,
      "##편의": 9646,
      "추석": 9647,
      "죽인": 9648,
      "저자": 9649,
      "결제": 9650,
      "자가": 9651,
      "왼쪽": 9652,
      "원정": 9653,
      "보완": 9654,
      "해산": 9655,
      "##총선": 9656,
      "농업": 9657,
      "##화학": 9658,
      "##썬": 9659,
      "입맛": 9660,
      "##대한": 9661,
      "노후": 9662,
      "##생산": 9663,
      "노릇": 9664,
      "저딴": 9665,
      "개설": 9666,
      "##천지": 9667,
      "이분": 9668,
      "##튼": 9669,
      "건지": 9670,
      "몰래": 9671,
      "##정": 9672,
      "걸로": 9673,
      "데모": 9674,
      "괴물": 9675,
      "영향력": 9676,
      "##지나": 9677,
      "죽여": 9678,
      "조절": 9679,
      "내린": 9680,
      "공모": 9681,
      "내려오": 9682,
      "##주인": 9683,
      "##빈": 9684,
      "실시간": 9685,
      "##큰": 9686,
      "##표의": 9687,
      "시계": 9688,
      "##위한": 9689,
      "##아닌": 9690,
      "창조": 9691,
      "##총": 9692,
      "어깨": 9693,
      "##버린다": 9694,
      "##지경": 9695,
      "질병": 9696,
      "페이스북": 9697,
      "시범": 9698,
      "흡수": 9699,
      "##중공업": 9700,
      "가르치": 9701,
      "했었": 9702,
      "살아라": 9703,
      "##범": 9704,
      "임무": 9705,
      "##무역": 9706,
      "의외": 9707,
      "예고": 9708,
      "태국": 9709,
      "입증": 9710,
      "조장": 9711,
      "##행의": 9712,
      "채우": 9713,
      "##28": 9714,
      "환율": 9715,
      "자본주의": 9716,
      "지점": 9717,
      "##국회": 9718,
      "소화": 9719,
      "##술": 9720,
      "##27": 9721,
      "국익": 9722,
      "##26": 9723,
      "##X": 9724,
      "시인": 9725,
      "##기회": 9726,
      "주최": 9727,
      "중반": 9728,
      "직무": 9729,
      "믿음": 9730,
      "##인과": 9731,
      "##행정": 9732,
      "##수당": 9733,
      "##기능": 9734,
      "타입": 9735,
      "진작": 9736,
      "채택": 9737,
      "미션": 9738,
      "할아버지": 9739,
      "상대방": 9740,
      "번역": 9741,
      "##우": 9742,
      "연주": 9743,
      "600": 9744,
      "##규제": 9745,
      "대충": 9746,
      "##시리즈": 9747,
      "상호": 9748,
      "##부문": 9749,
      "##쥐": 9750,
      "##→": 9751,
      "##직원": 9752,
      "지역구": 9753,
      "어려울": 9754,
      "타자": 9755,
      "그곳": 9756,
      "주한": 9757,
      "##공격": 9758,
      "윤석렬": 9759,
      "북미": 9760,
      "##2000": 9761,
      "##을려고": 9762,
      "공원": 9763,
      "##전형": 9764,
      "개별": 9765,
      "매번": 9766,
      "졸라": 9767,
      "화학": 9768,
      "##정말": 9769,
      "##봐요": 9770,
      "방영": 9771,
      "##턴": 9772,
      "추측": 9773,
      "성매매": 9774,
      "##감사": 9775,
      "##신고": 9776,
      "##대응": 9777,
      "올바른": 9778,
      "34": 9779,
      "38": 9780,
      "손석희": 9781,
      "만세": 9782,
      "코스": 9783,
      "연대": 9784,
      "강도": 9785,
      "버렸": 9786,
      "##따위": 9787,
      "미만": 9788,
      "강행": 9789,
      "##미아": 9790,
      "수주": 9791,
      "증시": 9792,
      "닥치": 9793,
      "꺼져라": 9794,
      "유승민": 9795,
      "접촉": 9796,
      "우기": 9797,
      "부처": 9798,
      "떳떳": 9799,
      "##쇼핑": 9800,
      "분이": 9801,
      "##이후": 9802,
      "##안보": 9803,
      "##협의회": 9804,
      "예의": 9805,
      "##컵": 9806,
      "##백화점": 9807,
      "##올": 9808,
      "##십니다": 9809,
      "##좃": 9810,
      "##짝": 9811,
      "후배": 9812,
      "##29": 9813,
      "하여튼": 9814,
      "극단": 9815,
      "손잡": 9816,
      "흘리": 9817,
      "##톤": 9818,
      "2003": 9819,
      "식민지": 9820,
      "조롱": 9821,
      "수시": 9822,
      "##ㄲ": 9823,
      "보건": 9824,
      "낭비": 9825,
      "동양": 9826,
      "##시국": 9827,
      "저지르": 9828,
      "애기": 9829,
      "##다만": 9830,
      "##낼": 9831,
      "임직원": 9832,
      "둘째": 9833,
      "철거": 9834,
      "국내외": 9835,
      "감히": 9836,
      "모자": 9837,
      "##프로그램": 9838,
      "표창장": 9839,
      "##개선": 9840,
      "심장": 9841,
      "##절": 9842,
      "죄송": 9843,
      "재밌": 9844,
      "적합": 9845,
      "배운": 9846,
      "통상": 9847,
      "캠프": 9848,
      "##구리": 9849,
      "일행": 9850,
      "태풍": 9851,
      "철회": 9852,
      "통보": 9853,
      "##마의": 9854,
      "##봉사": 9855,
      "단위": 9856,
      "균형": 9857,
      "자라": 9858,
      "만날": 9859,
      "중대": 9860,
      "어째": 9861,
      "##짖": 9862,
      "들어갈": 9863,
      "따위": 9864,
      "고문": 9865,
      "지원금": 9866,
      "객관": 9867,
      "##비율": 9868,
      "기어": 9869,
      "##인력": 9870,
      "##그래": 9871,
      "##인당": 9872,
      "그치": 9873,
      "나대": 9874,
      "개막": 9875,
      "무력": 9876,
      "꺼져": 9877,
      "활발": 9878,
      "##C": 9879,
      "나설": 9880,
      "고기": 9881,
      "관측": 9882,
      "며칠": 9883,
      "##늠": 9884,
      "상인": 9885,
      "이겨": 9886,
      "예능": 9887,
      "제압": 9888,
      "저지른": 9889,
      "전해졌": 9890,
      "모를": 9891,
      "지소": 9892,
      "구현": 9893,
      "##연대": 9894,
      "잠깐": 9895,
      "민정": 9896,
      "##텔레콤": 9897,
      "##대변인": 9898,
      "전파": 9899,
      "화장실": 9900,
      "풍부": 9901,
      "제정": 9902,
      "##탄": 9903,
      "면상": 9904,
      "캐나다": 9905,
      "##부분": 9906,
      "##인권": 9907,
      "##안정": 9908,
      "연합": 9909,
      "콘서트": 9910,
      "적발": 9911,
      "##부가": 9912,
      "점유": 9913,
      "선거법": 9914,
      "##느": 9915,
      "문의": 9916,
      "##차량": 9917,
      "살해": 9918,
      "##으려는": 9919,
      "불가피": 9920,
      "곧바로": 9921,
      "가볍": 9922,
      "녹색": 9923,
      "부작용": 9924,
      "맞이": 9925,
      "도심": 9926,
      "##반의": 9927,
      "KIA": 9928,
      "##대비": 9929,
      "저항": 9930,
      "각자": 9931,
      "##블": 9932,
      "##무기": 9933,
      "편의점": 9934,
      "무상": 9935,
      "그쳤": 9936,
      "신분": 9937,
      "거절": 9938,
      "지령": 9939,
      "##사이트": 9940,
      "##저런": 9941,
      "김어준": 9942,
      "##현지": 9943,
      "자들": 9944,
      "했으나": 9945,
      "##B": 9946,
      "##철도": 9947,
      "마녀": 9948,
      "##부장": 9949,
      "면접": 9950,
      "재인": 9951,
      "알아보": 9952,
      "긴장": 9953,
      "특허": 9954,
      "챔피언": 9955,
      "##마냥": 9956,
      "##마스크": 9957,
      "##시킨다": 9958,
      "##덩어리": 9959,
      "수리": 9960,
      "나갔": 9961,
      "##탄핵": 9962,
      "기가": 9963,
      "##패스": 9964,
      "##질의": 9965,
      "지휘": 9966,
      "##셔": 9967,
      "과장": 9968,
      "##마음": 9969,
      "메뉴": 9970,
      "소장": 9971,
      "화장품": 9972,
      "##원장": 9973,
      "줘야": 9974,
      "도내": 9975,
      "요새": 9976,
      "네트워크": 9977,
      "중학교": 9978,
      "죽일": 9979,
      "기득": 9980,
      "##더냐": 9981,
      "세종": 9982,
      "저건": 9983,
      "##협정": 9984,
      "편리": 9985,
      "점차": 9986,
      "광장": 9987,
      "열정": 9988,
      "보조": 9989,
      "오죽": 9990,
      "사업자": 9991,
      "휴대": 9992,
      "##축구": 9993,
      "언젠가": 9994,
      "현안": 9995,
      "바쁘": 9996,
      "##미터": 9997,
      "전염병": 9998,
      "반미": 9999,
      "삭발": 10000,
      "침몰": 10001,
      "양보": 10002,
      "장군": 10003,
      "출근": 10004,
      "##반대": 10005,
      "업종": 10006,
      "먹이": 10007,
      "그지": 10008,
      "유력": 10009,
      "기술력": 10010,
      "전직": 10011,
      "처분": 10012,
      "계좌": 10013,
      "시비": 10014,
      "신도": 10015,
      "고양이": 10016,
      "옮기": 10017,
      "거품": 10018,
      "귀족": 10019,
      "가계": 10020,
      "##평등": 10021,
      "오브": 10022,
      "##아직": 10023,
      "운명": 10024,
      "##했으니": 10025,
      "##앤": 10026,
      "##.!!": 10027,
      "##천억": 10028,
      "살펴보": 10029,
      "황제": 10030,
      "##강의": 10031,
      "넘겨": 10032,
      "##충이": 10033,
      "앞장서": 10034,
      "씨부리": 10035,
      "실정": 10036,
      "형제": 10037,
      "##츠": 10038,
      "##올리": 10039,
      "당일": 10040,
      "소신": 10041,
      "##순간": 10042,
      "감추": 10043,
      "해군": 10044,
      "당부": 10045,
      "직장인": 10046,
      "시전": 10047,
      "꼰대": 10048,
      "표기": 10049,
      "공직": 10050,
      "특이": 10051,
      "연애": 10052,
      "##종시": 10053,
      "심의": 10054,
      "앞뒤": 10055,
      "교과서": 10056,
      "마땅": 10057,
      "유행": 10058,
      "##그런": 10059,
      "그리스": 10060,
      "매매": 10061,
      "##교의": 10062,
      "동부": 10063,
      "유발": 10064,
      "유족": 10065,
      "참가자": 10066,
      "유입": 10067,
      "오른쪽": 10068,
      "##''": 10069,
      "위장": 10070,
      "##누": 10071,
      "##K": 10072,
      "##이러": 10073,
      "기원": 10074,
      "강원": 10075,
      "정하": 10076,
      "약자": 10077,
      "범인": 10078,
      "실내": 10079,
      "vs": 10080,
      "##현의": 10081,
      "압력": 10082,
      "##선언": 10083,
      "##인상": 10084,
      "점령": 10085,
      "정규직": 10086,
      "추적": 10087,
      "##조건": 10088,
      "안심": 10089,
      "##80": 10090,
      "연령": 10091,
      "##갖": 10092,
      "투어": 10093,
      "상당수": 10094,
      "##보인다": 10095,
      "색깔": 10096,
      "리얼미터": 10097,
      "이쪽": 10098,
      "편안": 10099,
      "민폐": 10100,
      "멋지": 10101,
      "보관": 10102,
      "##이게": 10103,
      "빠졌": 10104,
      "##로서의": 10105,
      "##스포츠": 10106,
      "##훠": 10107,
      "인건비": 10108,
      "선보였": 10109,
      "광역": 10110,
      "마인드": 10111,
      "봉쇄": 10112,
      "아저씨": 10113,
      "약한": 10114,
      "##는데요": 10115,
      "순서": 10116,
      "민원": 10117,
      "침해": 10118,
      "끔찍": 10119,
      "일찍": 10120,
      "##g": 10121,
      "##당은": 10122,
      "보일": 10123,
      "##이래": 10124,
      "코치": 10125,
      "##사용": 10126,
      "여경": 10127,
      "대한항공": 10128,
      "멋진": 10129,
      "그날": 10130,
      "증언": 10131,
      "##떨": 10132,
      "사기꾼": 10133,
      "##냥": 10134,
      "정황": 10135,
      "##희": 10136,
      "##www": 10137,
      "이적": 10138,
      "선진": 10139,
      "##기기": 10140,
      "화이트": 10141,
      "입원": 10142,
      "추억": 10143,
      "약하": 10144,
      "안팎": 10145,
      "##의장": 10146,
      "특화": 10147,
      "수령": 10148,
      "정말로": 10149,
      "##카페": 10150,
      "개의": 10151,
      "##죽이": 10152,
      "마스터": 10153,
      "##라는데": 10154,
      "유가족": 10155,
      "##찾": 10156,
      "##객의": 10157,
      "##시위": 10158,
      "##격리": 10159,
      "##여야": 10160,
      "##세의": 10161,
      "이른바": 10162,
      "##입국": 10163,
      "회피": 10164,
      "##준다고": 10165,
      "##보복": 10166,
      "지명": 10167,
      "##거지": 10168,
      "이행": 10169,
      "뮤지컬": 10170,
      "##장치": 10171,
      "##화의": 10172,
      "내려가": 10173,
      "##동물": 10174,
      "종족": 10175,
      "만들어진": 10176,
      "##앗": 10177,
      "##해진다": 10178,
      "정착": 10179,
      "중소": 10180,
      "##인척": 10181,
      "진료": 10182,
      "맡기": 10183,
      "가즈": 10184,
      "37": 10185,
      "##꾸": 10186,
      "##공인": 10187,
      "종종": 10188,
      "필리핀": 10189,
      "김제동": 10190,
      "참사": 10191,
      "키워": 10192,
      "음주운전": 10193,
      "거치": 10194,
      "명복": 10195,
      "소년": 10196,
      "##200": 10197,
      "##통의": 10198,
      "##이리": 10199,
      "공평": 10200,
      "##변화": 10201,
      "##메": 10202,
      "##탈": 10203,
      "##오늘": 10204,
      "토대": 10205,
      "##짜": 10206,
      "매주": 10207,
      "망했": 10208,
      "소모": 10209,
      "뻔하": 10210,
      "여권": 10211,
      "##호의": 10212,
      "##냐는": 10213,
      "신속": 10214,
      "지경": 10215,
      "##지랄": 10216,
      "그럼에도": 10217,
      "##중의": 10218,
      "##쓴": 10219,
      "본부": 10220,
      "등판": 10221,
      "가져가": 10222,
      "##권력": 10223,
      "각성": 10224,
      "여수": 10225,
      "중립": 10226,
      "폭동": 10227,
      "##파크": 10228,
      "어리석": 10229,
      "75": 10230,
      "일원": 10231,
      "기기": 10232,
      "장식": 10233,
      "이어졌": 10234,
      "##됬": 10235,
      "악질": 10236,
      "드래곤": 10237,
      "주차": 10238,
      "##그래도": 10239,
      "##야당": 10240,
      "배터리": 10241,
      "##70": 10242,
      "나간": 10243,
      "개그": 10244,
      "침묵": 10245,
      "##봉": 10246,
      "보여준": 10247,
      "간의": 10248,
      "본래": 10249,
      "들리": 10250,
      "깊이": 10251,
      "서구": 10252,
      "임신": 10253,
      "산하": 10254,
      "대미지": 10255,
      "부각": 10256,
      "가량": 10257,
      "절감": 10258,
      "들여": 10259,
      "전수": 10260,
      "##교통": 10261,
      "패거리": 10262,
      "55": 10263,
      "공인": 10264,
      "##계층": 10265,
      "선사": 10266,
      "허리": 10267,
      "상가": 10268,
      "##미군": 10269,
      "##유지": 10270,
      "저질": 10271,
      "장치": 10272,
      "##공의": 10273,
      "##우의": 10274,
      "초과": 10275,
      "배상": 10276,
      "나의": 10277,
      "정유라": 10278,
      "##덕": 10279,
      "써야": 10280,
      "전해": 10281,
      "대량": 10282,
      "아끼": 10283,
      "##임의": 10284,
      "##사기": 10285,
      "사냥": 10286,
      "##업무": 10287,
      "중동": 10288,
      "배신": 10289,
      "금방": 10290,
      "##금액": 10291,
      "티비": 10292,
      "위력": 10293,
      "##장비": 10294,
      "병사": 10295,
      "이뤄": 10296,
      "가사": 10297,
      "테스트": 10298,
      "맥주": 10299,
      "##작의": 10300,
      "한전": 10301,
      "##지키": 10302,
      "##차원": 10303,
      "##ㅜ": 10304,
      "이용자": 10305,
      "##였으나": 10306,
      "##슈": 10307,
      "##걱정": 10308,
      "의회": 10309,
      "조례": 10310,
      "급여": 10311,
      "##올해": 10312,
      "##징": 10313,
      "일어난": 10314,
      "##으신": 10315,
      "계시": 10316,
      "##는겨": 10317,
      "GS": 10318,
      "놀이": 10319,
      "##모델": 10320,
      "##커": 10321,
      "##연의": 10322,
      "법대": 10323,
      "##여론": 10324,
      "청약": 10325,
      "도저히": 10326,
      "##노동": 10327,
      "##싱": 10328,
      "흐르": 10329,
      "##설": 10330,
      "이승만": 10331,
      "##승리": 10332,
      "서버": 10333,
      "##심사": 10334,
      "##금의": 10335,
      "단기": 10336,
      "클리어": 10337,
      "근접": 10338,
      "중앙일보": 10339,
      "##무슨": 10340,
      "예외": 10341,
      "##지난": 10342,
      "##슥": 10343,
      "사라졌": 10344,
      "재개": 10345,
      "경유": 10346,
      "저축": 10347,
      "병력": 10348,
      "구경": 10349,
      "꿈꾸": 10350,
      "그쪽": 10351,
      "낮추": 10352,
      "##엄마": 10353,
      "링크": 10354,
      "##cm": 10355,
      "##찰": 10356,
      "각오": 10357,
      "대해선": 10358,
      "신중": 10359,
      "##차이": 10360,
      "쇼핑": 10361,
      "지닌": 10362,
      "##할려고": 10363,
      "결합": 10364,
      "보수가": 10365,
      "##짱": 10366,
      "한남": 10367,
      "1500": 10368,
      "가스": 10369,
      "##처분": 10370,
      "별명": 10371,
      "파리": 10372,
      "이순신": 10373,
      "런던": 10374,
      "이래도": 10375,
      "코미디": 10376,
      "충전": 10377,
      "무한": 10378,
      "회수": 10379,
      "##kr": 10380,
      "##에서부터": 10381,
      "선도": 10382,
      "빨간": 10383,
      "왕따": 10384,
      "자진": 10385,
      "영장": 10386,
      "##껀": 10387,
      "강사": 10388,
      "##가요": 10389,
      "편지": 10390,
      "들어서": 10391,
      "영원": 10392,
      "위상": 10393,
      "##울": 10394,
      "마이크": 10395,
      "AI": 10396,
      "교도소": 10397,
      "시켰": 10398,
      "##중대": 10399,
      "서명": 10400,
      "##나갈": 10401,
      "##최근": 10402,
      "공익": 10403,
      "보소": 10404,
      "패스": 10405,
      "##찌": 10406,
      "48": 10407,
      "목포": 10408,
      "##너무": 10409,
      "학살": 10410,
      "##짐": 10411,
      "월세": 10412,
      "##대사": 10413,
      "깔끔": 10414,
      "##딜": 10415,
      "협약": 10416,
      "퀘스트": 10417,
      "공주": 10418,
      "명확": 10419,
      "독특": 10420,
      "멈추": 10421,
      "확신": 10422,
      "41": 10423,
      "밥그릇": 10424,
      "##학기": 10425,
      "컨트롤": 10426,
      "가지가지": 10427,
      "##!!": 10428,
      "비서": 10429,
      "모인": 10430,
      "##캐": 10431,
      "익숙": 10432,
      "구멍": 10433,
      "살짝": 10434,
      "장르": 10435,
      "42": 10436,
      "##투어": 10437,
      "소형": 10438,
      "망신": 10439,
      "##진의": 10440,
      "조폭": 10441,
      "돌입": 10442,
      "뜨거운": 10443,
      "내주": 10444,
      "연극": 10445,
      "##경": 10446,
      "양국": 10447,
      "저희": 10448,
      "의뢰": 10449,
      "명절": 10450,
      "하위": 10451,
      "##꼬라지": 10452,
      "야권": 10453,
      "인턴": 10454,
      "재단": 10455,
      "초등학생": 10456,
      "말라": 10457,
      "담긴": 10458,
      "부하": 10459,
      "더블": 10460,
      "##빠리": 10461,
      "정원": 10462,
      "대구경북": 10463,
      "교환": 10464,
      "어릴": 10465,
      "열렸": 10466,
      "##판매": 10467,
      "길거리": 10468,
      "납품": 10469,
      "사격": 10470,
      "깡패": 10471,
      "업적": 10472,
      "작동": 10473,
      "##.!": 10474,
      "웃긴": 10475,
      "일시": 10476,
      "1990": 10477,
      "의존": 10478,
      "환장": 10479,
      "모았": 10480,
      "커녕": 10481,
      "흔히": 10482,
      "설문": 10483,
      "상생": 10484,
      "옵션": 10485,
      "약국": 10486,
      "아픈": 10487,
      "사면": 10488,
      "##해의": 10489,
      "떠오르": 10490,
      "##룰": 10491,
      "##합니까": 10492,
      "느꼈": 10493,
      "성남": 10494,
      "용도": 10495,
      "공작": 10496,
      "현역": 10497,
      "코스피": 10498,
      "빌려": 10499,
      "적응": 10500,
      "##생의": 10501,
      "##협": 10502,
      "소수": 10503,
      "엔딩": 10504,
      "만남": 10505,
      "비전": 10506,
      "##~?": 10507,
      "##31": 10508,
      "##요금": 10509,
      "실무": 10510,
      "##35": 10511,
      "억지": 10512,
      "##인생": 10513,
      "따라가": 10514,
      "관심없": 10515,
      "매달": 10516,
      "전광훈": 10517,
      "##역의": 10518,
      "39": 10519,
      "##재정": 10520,
      "공기업": 10521,
      "of": 10522,
      "수고": 10523,
      "유권자": 10524,
      "염병": 10525,
      "저놈": 10526,
      "스펙": 10527,
      "800": 10528,
      "중구": 10529,
      "##입장": 10530,
      "대국민": 10531,
      "소련": 10532,
      "설비": 10533,
      "어이": 10534,
      "가관": 10535,
      "올릴": 10536,
      "##격의": 10537,
      "##사가": 10538,
      "##주가": 10539,
      "베네수엘라": 10540,
      "##사이": 10541,
      "##그리고": 10542,
      "##쑈": 10543,
      "##모두": 10544,
      "수호": 10545,
      "FTA": 10546,
      "##믄": 10547,
      "제조업": 10548,
      "써라": 10549,
      "놀랍": 10550,
      "##그만": 10551,
      "54": 10552,
      "마이너스": 10553,
      "##시작": 10554,
      "앞둔": 10555,
      "면적": 10556,
      "옮겨": 10557,
      "미술": 10558,
      "한국어": 10559,
      "유형": 10560,
      "지연": 10561,
      "발광": 10562,
      "싱글": 10563,
      "되찾": 10564,
      "라디오": 10565,
      "그간": 10566,
      "여건": 10567,
      "바이오": 10568,
      "중공": 10569,
      "아픔": 10570,
      "해방": 10571,
      "##미사일": 10572,
      "해고": 10573,
      "다가오": 10574,
      "격차": 10575,
      "##그럼": 10576,
      "##노인": 10577,
      "잔인": 10578,
      "침체": 10579,
      "역전": 10580,
      "뛰어나": 10581,
      "물질": 10582,
      "성분": 10583,
      "당황": 10584,
      "사악": 10585,
      "상승세": 10586,
      "누적": 10587,
      "##양의": 10588,
      "KB": 10589,
      "현명": 10590,
      "커뮤니티": 10591,
      "흥미": 10592,
      "문구": 10593,
      "전역": 10594,
      "##발전소": 10595,
      "미니": 10596,
      "##일자": 10597,
      "##망하": 10598,
      "##부산": 10599,
      "죽였": 10600,
      "품목": 10601,
      "비록": 10602,
      "입법": 10603,
      "폐렴": 10604,
      "##인데도": 10605,
      "충북": 10606,
      "지도부": 10607,
      "##연맹": 10608,
      "인연": 10609,
      "이론": 10610,
      "개뿔": 10611,
      "놀라": 10612,
      "수집": 10613,
      "##여당": 10614,
      "세워": 10615,
      "태어난": 10616,
      "##자기": 10617,
      "조지": 10618,
      "재판부": 10619,
      "##법의": 10620,
      "세웠": 10621,
      "##일세": 10622,
      "##공연": 10623,
      "사지": 10624,
      "##낳": 10625,
      "당원": 10626,
      "깜짝": 10627,
      "판매량": 10628,
      "조상": 10629,
      "늘려": 10630,
      "점심": 10631,
      "건데": 10632,
      "바르": 10633,
      "##쓸": 10634,
      "##과장": 10635,
      "##텍": 10636,
      "내보내": 10637,
      "손님": 10638,
      "발급": 10639,
      "저주": 10640,
      "시켜야": 10641,
      "##나이": 10642,
      "##선생": 10643,
      "측근": 10644,
      "마트": 10645,
      "추악": 10646,
      "##불당": 10647,
      "##삼성": 10648,
      "고의": 10649,
      "완공": 10650,
      "기재": 10651,
      "##리가": 10652,
      "전술": 10653,
      "아무래도": 10654,
      "##투": 10655,
      "아마도": 10656,
      "승진": 10657,
      "##끌": 10658,
      "밝혀졌": 10659,
      "몰리": 10660,
      "##면적": 10661,
      "이스라엘": 10662,
      "평양": 10663,
      "##분열": 10664,
      "##사단": 10665,
      "전설": 10666,
      "확충": 10667,
      "##이용": 10668,
      "평창": 10669,
      "간담회": 10670,
      "지위": 10671,
      "##얼굴": 10672,
      "권고": 10673,
      "마친": 10674,
      "융합": 10675,
      "마당": 10676,
      "종이": 10677,
      "라면": 10678,
      "##방의": 10679,
      "다운": 10680,
      "코리아": 10681,
      "올라오": 10682,
      "동반": 10683,
      "CEO": 10684,
      "위의": 10685,
      "감염자": 10686,
      "어린이집": 10687,
      "##플러스": 10688,
      "엘지": 10689,
      "코너": 10690,
      "주차장": 10691,
      "##팅": 10692,
      "상관없이": 10693,
      "유용": 10694,
      "플랫": 10695,
      "쓴다": 10696,
      "당국": 10697,
      "사무": 10698,
      "배웠": 10699,
      "문학": 10700,
      "##시켜서": 10701,
      "밀리": 10702,
      "교과": 10703,
      "기각": 10704,
      "##해질": 10705,
      "하수인": 10706,
      "재건축": 10707,
      "##폭력": 10708,
      "신발": 10709,
      "깨닫": 10710,
      "주주": 10711,
      "의하": 10712,
      "위선자": 10713,
      "기대감": 10714,
      "교통사고": 10715,
      "취득": 10716,
      "치킨": 10717,
      "호흡": 10718,
      "몰아내": 10719,
      "마리": 10720,
      "##당신": 10721,
      "여의도": 10722,
      "탄압": 10723,
      "달려": 10724,
      "클래식": 10725,
      "표준": 10726,
      "건가": 10727,
      "##민국": 10728,
      "##이름": 10729,
      "##인구": 10730,
      "복원": 10731,
      "널리": 10732,
      "관람": 10733,
      "그대": 10734,
      "새기": 10735,
      "혁명": 10736,
      "찌질": 10737,
      "개헌": 10738,
      "철학": 10739,
      "##수익": 10740,
      "줄여": 10741,
      "인가": 10742,
      "원자력": 10743,
      "발달": 10744,
      "날뛰": 10745,
      "##개념": 10746,
      "##질환": 10747,
      "민감": 10748,
      "유독": 10749,
      "내기": 10750,
      "향한": 10751,
      "테마": 10752,
      "##려다": 10753,
      "재무": 10754,
      "전사": 10755,
      "이언주": 10756,
      "소위": 10757,
      "감각": 10758,
      "대접": 10759,
      "질환": 10760,
      "던져": 10761,
      "##기획": 10762,
      "오류": 10763,
      "매출액": 10764,
      "임대료": 10765,
      "##결정": 10766,
      "##이렇": 10767,
      "액션": 10768,
      "##교체": 10769,
      "면제": 10770,
      "2001": 10771,
      "지네": 10772,
      "보존": 10773,
      "##어디": 10774,
      "##셔야": 10775,
      "IMF": 10776,
      "##모든": 10777,
      "타이밍": 10778,
      "언니": 10779,
      "##활용": 10780,
      "##3000": 10781,
      "히트": 10782,
      "250": 10783,
      "떠드": 10784,
      "관여": 10785,
      "주자": 10786,
      "백신": 10787,
      "이정부": 10788,
      "##님의": 10789,
      "매도": 10790,
      "다섯": 10791,
      "용역": 10792,
      "700": 10793,
      "머저리": 10794,
      "정신병": 10795,
      "박지원": 10796,
      "늘어났": 10797,
      "작정": 10798,
      "출석": 10799,
      "##홈런": 10800,
      "##와중": 10801,
      "초점": 10802,
      "##수지": 10803,
      "##취급": 10804,
      "찍소리": 10805,
      "자신감": 10806,
      "##추진": 10807,
      "합법": 10808,
      "유죄": 10809,
      "관점": 10810,
      "##거부": 10811,
      "모시": 10812,
[...]
